#include "magic_wand_model_data.h"


// We need to keep the data array aligned on some architectures.

#ifdef __has_attribute

#define HAVE_ATTRIBUTE(x) __has_attribute(x)

#else

#define HAVE_ATTRIBUTE(x) 0

#endif

#if HAVE_ATTRIBUTE(aligned) || (defined(__GNUC__) && !defined(__clang__))

#define DATA_ALIGN_ATTRIBUTE __attribute__((aligned(4)))

#else

#define DATA_ALIGN_ATTRIBUTE

#endif


const unsigned char g_magic_wand_model_data[] DATA_ALIGN_ATTRIBUTE = {

  0x08, 0x00, 0x00, 0x00, 0x54, 0x46, 0x4c, 0x33, 0x62, 0xff, 0xff, 0xff,
  0x03, 0x00, 0x00, 0x00, 0x10, 0x00, 0x00, 0x00, 0x24, 0x00, 0x00, 0x00,
  0x78, 0x00, 0x00, 0x00, 0x24, 0x00, 0x00, 0x00, 0x05, 0x00, 0x00, 0x00,
  0x78, 0x05, 0x00, 0x00, 0xb0, 0x04, 0x00, 0x00, 0xe0, 0x02, 0x00, 0x00,
  0x60, 0x02, 0x00, 0x00, 0x54, 0x01, 0x00, 0x00, 0x01, 0x00, 0x00, 0x00,
  0x78, 0x00, 0x00, 0x00, 0x13, 0x00, 0x00, 0x00, 0x18, 0x30, 0x00, 0x00,
  0x14, 0x30, 0x00, 0x00, 0x20, 0x2f, 0x00, 0x00, 0xa8, 0x2e, 0x00, 0x00,
  0x3c, 0x2e, 0x00, 0x00, 0xec, 0x11, 0x00, 0x00, 0x98, 0x10, 0x00, 0x00,
  0xbc, 0x0e, 0x00, 0x00, 0x60, 0x06, 0x00, 0x00, 0xfc, 0x05, 0x00, 0x00,
  0x78, 0x05, 0x00, 0x00, 0xec, 0x2f, 0x00, 0x00, 0xe8, 0x2f, 0x00, 0x00,
  0xe4, 0x2f, 0x00, 0x00, 0xe0, 0x2f, 0x00, 0x00, 0xdc, 0x2f, 0x00, 0x00,
  0xd8, 0x2f, 0x00, 0x00, 0xd4, 0x2f, 0x00, 0x00, 0xd0, 0x2f, 0x00, 0x00,
  0x0f, 0x00, 0x00, 0x00, 0x4d, 0x4c, 0x49, 0x52, 0x20, 0x43, 0x6f, 0x6e,
  0x76, 0x65, 0x72, 0x74, 0x65, 0x64, 0x2e, 0x00, 0x00, 0x00, 0x0e, 0x00,
  0x18, 0x00, 0x04, 0x00, 0x08, 0x00, 0x0c, 0x00, 0x10, 0x00, 0x14, 0x00,
  0x0e, 0x00, 0x00, 0x00, 0x14, 0x00, 0x00, 0x00, 0x5c, 0x00, 0x00, 0x00,
  0x60, 0x00, 0x00, 0x00, 0x64, 0x00, 0x00, 0x00, 0x84, 0x00, 0x00, 0x00,
  0x12, 0x00, 0x00, 0x00, 0x48, 0x2f, 0x00, 0x00, 0xe4, 0x2e, 0x00, 0x00,
  0x3c, 0x2e, 0x00, 0x00, 0xd8, 0x2d, 0x00, 0x00, 0x70, 0x2d, 0x00, 0x00,
  0x1c, 0x11, 0x00, 0x00, 0xc0, 0x0f, 0x00, 0x00, 0xe4, 0x0d, 0x00, 0x00,
  0xa0, 0x05, 0x00, 0x00, 0x3c, 0x05, 0x00, 0x00, 0xb0, 0x04, 0x00, 0x00,
  0xe8, 0x03, 0x00, 0x00, 0x38, 0x03, 0x00, 0x00, 0xa4, 0x02, 0x00, 0x00,
  0x10, 0x02, 0x00, 0x00, 0x90, 0x01, 0x00, 0x00, 0xfc, 0x00, 0x00, 0x00,
  0x80, 0x00, 0x00, 0x00, 0x01, 0x00, 0x00, 0x00, 0x00, 0x00, 0x00, 0x00,
  0x01, 0x00, 0x00, 0x00, 0x11, 0x00, 0x00, 0x00, 0x08, 0x00, 0x00, 0x00,
  0x1c, 0x04, 0x00, 0x00, 0x58, 0x03, 0x00, 0x00, 0xc8, 0x02, 0x00, 0x00,
  0x24, 0x02, 0x00, 0x00, 0xac, 0x01, 0x00, 0x00, 0x10, 0x01, 0x00, 0x00,
  0x94, 0x00, 0x00, 0x00, 0x10, 0x00, 0x00, 0x00, 0x04, 0x00, 0x00, 0x00,
  0x6d, 0x61, 0x69, 0x6e, 0x00, 0x00, 0x00, 0x00, 0x8e, 0xff, 0xff, 0xff,
  0x00, 0x00, 0x00, 0x09, 0x04, 0x00, 0x00, 0x00, 0x1c, 0x00, 0x00, 0x00,
  0x10, 0x00, 0x00, 0x00, 0x04, 0x00, 0x00, 0x00, 0x0a, 0xd2, 0xff, 0xff,
  0x00, 0x00, 0x80, 0x3f, 0x01, 0x00, 0x00, 0x00, 0x11, 0x00, 0x00, 0x00,
  0x01, 0x00, 0x00, 0x00, 0x10, 0x00, 0x00, 0x00, 0xf6, 0xfb, 0xff, 0xff,
  0x00, 0x00, 0x00, 0x19, 0x01, 0x00, 0x00, 0x00, 0x8a, 0xd1, 0xff, 0xff,
  0x10, 0x00, 0x00, 0x00, 0x12, 0x00, 0x00, 0x00, 0x14, 0x00, 0x00, 0x00,
  0x20, 0x00, 0x00, 0x00, 0x02, 0x00, 0x00, 0x00, 0x01, 0x00, 0x00, 0x00,
  0x04, 0x00, 0x00, 0x00, 0x08, 0x00, 0x00, 0x00, 0x49, 0x64, 0x65, 0x6e,
  0x74, 0x69, 0x74, 0x79, 0x00, 0x00, 0x00, 0x00, 0xc4, 0xd1, 0xff, 0xff,
  0x00, 0x00, 0x0e, 0x00, 0x18, 0x00, 0x08, 0x00, 0x0c, 0x00, 0x10, 0x00,
  0x07, 0x00, 0x14, 0x00, 0x0e, 0x00, 0x00, 0x00, 0x00, 0x00, 0x00, 0x08,
  0x03, 0x00, 0x00, 0x00, 0x18, 0x00, 0x00, 0x00, 0x0c, 0x00, 0x00, 0x00,
  0x04, 0x00, 0x00, 0x00, 0x98, 0xd1, 0xff, 0xff, 0x01, 0x00, 0x00, 0x00,
  0x10, 0x00, 0x00, 0x00, 0x03, 0x00, 0x00, 0x00, 0x0f, 0x00, 0x00, 0x00,
  0x05, 0x00, 0x00, 0x00, 0x02, 0x00, 0x00, 0x00, 0x02, 0xd2, 0xff, 0xff,
  0x10, 0x00, 0x00, 0x00, 0x11, 0x00, 0x00, 0x00, 0x14, 0x00, 0x00, 0x00,
  0x30, 0x00, 0x00, 0x00, 0x02, 0x00, 0x00, 0x00, 0x01, 0x00, 0x00, 0x00,
  0x04, 0x00, 0x00, 0x00, 0x1a, 0x00, 0x00, 0x00, 0x73, 0x65, 0x71, 0x75,
  0x65, 0x6e, 0x74, 0x69, 0x61, 0x6c, 0x2f, 0x64, 0x65, 0x6e, 0x73, 0x65,
  0x5f, 0x31, 0x2f, 0x42, 0x69, 0x61, 0x73, 0x41, 0x64, 0x64, 0x00, 0x00,
  0xf4, 0xd1, 0xff, 0xff, 0xd6, 0xfd, 0xff, 0xff, 0x00, 0x00, 0x00, 0x08,
  0x03, 0x00, 0x00, 0x00, 0x24, 0x00, 0x00, 0x00, 0x18, 0x00, 0x00, 0x00,
  0x0c, 0x00, 0x00, 0x00, 0x00, 0x00, 0x06, 0x00, 0x08, 0x00, 0x07, 0x00,
  0x06, 0x00, 0x00, 0x00, 0x00, 0x00, 0x00, 0x01, 0x01, 0x00, 0x00, 0x00,
  0x0f, 0x00, 0x00, 0x00, 0x03, 0x00, 0x00, 0x00, 0x0e, 0x00, 0x00, 0x00,
  0x04, 0x00, 0x00, 0x00, 0x01, 0x00, 0x00, 0x00, 0xfe, 0xfc, 0xff, 0xff,
  0x00, 0x00, 0x00, 0x09, 0x01, 0x00, 0x00, 0x00, 0x92, 0xd2, 0xff, 0xff,
  0x10, 0x00, 0x00, 0x00, 0x10, 0x00, 0x00, 0x00, 0x14, 0x00, 0x00, 0x00,
  0x2c, 0x00, 0x00, 0x00, 0x02, 0x00, 0x00, 0x00, 0x01, 0x00, 0x00, 0x00,
  0x10, 0x00, 0x00, 0x00, 0x15, 0x00, 0x00, 0x00, 0x73, 0x65, 0x71, 0x75,
  0x65, 0x6e, 0x74, 0x69, 0x61, 0x6c, 0x2f, 0x64, 0x65, 0x6e, 0x73, 0x65,
  0x2f, 0x52, 0x65, 0x6c, 0x75, 0x00, 0x00, 0x00, 0xd8, 0xd2, 0xff, 0xff,
  0x00, 0x00, 0x0a, 0x00, 0x10, 0x00, 0x04, 0x00, 0x08, 0x00, 0x0c, 0x00,
  0x0a, 0x00, 0x00, 0x00, 0x02, 0x00, 0x00, 0x00, 0x10, 0x00, 0x00, 0x00,
  0x04, 0x00, 0x00, 0x00, 0x01, 0x00, 0x00, 0x00, 0x0e, 0x00, 0x00, 0x00,
  0x02, 0x00, 0x00, 0x00, 0x0d, 0x00, 0x00, 0x00, 0x03, 0x00, 0x00, 0x00,
  0x7a, 0xfd, 0xff, 0xff, 0x00, 0x00, 0x00, 0x16, 0x01, 0x00, 0x00, 0x00,
  0x0e, 0xd3, 0xff, 0xff, 0x10, 0x00, 0x00, 0x00, 0x0f, 0x00, 0x00, 0x00,
  0x14, 0x00, 0x00, 0x00, 0x30, 0x00, 0x00, 0x00, 0x02, 0x00, 0x00, 0x00,
  0x01, 0x00, 0x00, 0x00, 0x70, 0x00, 0x00, 0x00, 0x1a, 0x00, 0x00, 0x00,
  0x73, 0x65, 0x71, 0x75, 0x65, 0x6e, 0x74, 0x69, 0x61, 0x6c, 0x2f, 0x66,
  0x6c, 0x61, 0x74, 0x74, 0x65, 0x6e, 0x2f, 0x52, 0x65, 0x73, 0x68, 0x61,
  0x70, 0x65, 0x00, 0x00, 0x00, 0xd3, 0xff, 0xff, 0xe2, 0xfe, 0xff, 0xff,
  0x00, 0x00, 0x00, 0x05, 0x01, 0x00, 0x00, 0x00, 0x38, 0x00, 0x00, 0x00,
  0x2c, 0x00, 0x00, 0x00, 0x14, 0x00, 0x00, 0x00, 0x00, 0x00, 0x0e, 0x00,
  0x14, 0x00, 0x00, 0x00, 0x10, 0x00, 0x0c, 0x00, 0x08, 0x00, 0x04, 0x00,
  0x0e, 0x00, 0x00, 0x00, 0x03, 0x00, 0x00, 0x00, 0x01, 0x00, 0x00, 0x00,
  0x03, 0x00, 0x00, 0x00, 0x01, 0x00, 0x00, 0x00, 0x01, 0x00, 0x00, 0x00,
  0x0d, 0x00, 0x00, 0x00, 0x01, 0x00, 0x00, 0x00, 0x0c, 0x00, 0x00, 0x00,
  0x9e, 0xd3, 0xff, 0xff, 0x10, 0x00, 0x00, 0x00, 0x0e, 0x00, 0x00, 0x00,
  0x1c, 0x00, 0x00, 0x00, 0x40, 0x00, 0x00, 0x00, 0x04, 0x00, 0x00, 0x00,
  0x01, 0x00, 0x00, 0x00, 0x07, 0x00, 0x00, 0x00, 0x01, 0x00, 0x00, 0x00,
  0x10, 0x00, 0x00, 0x00, 0x22, 0x00, 0x00, 0x00, 0x73, 0x65, 0x71, 0x75,
  0x65, 0x6e, 0x74, 0x69, 0x61, 0x6c, 0x2f, 0x6d, 0x61, 0x78, 0x5f, 0x70,
  0x6f, 0x6f, 0x6c, 0x69, 0x6e, 0x67, 0x32, 0x64, 0x5f, 0x31, 0x2f, 0x4d,
  0x61, 0x78, 0x50, 0x6f, 0x6f, 0x6c, 0x00, 0x00, 0xa0, 0xd3, 0xff, 0xff,
  0xc2, 0xfe, 0xff, 0xff, 0x00, 0x00, 0x00, 0x01, 0x24, 0x00, 0x00, 0x00,
  0x18, 0x00, 0x00, 0x00, 0x04, 0x00, 0x00, 0x00, 0xb4, 0xfe, 0xff, 0xff,
  0x01, 0x00, 0x00, 0x00, 0x01, 0x00, 0x00, 0x00, 0x00, 0x00, 0x00, 0x01,
  0x01, 0x00, 0x00, 0x00, 0x0c, 0x00, 0x00, 0x00, 0x03, 0x00, 0x00, 0x00,
  0x0b, 0x00, 0x00, 0x00, 0x07, 0x00, 0x00, 0x00, 0x09, 0x00, 0x00, 0x00,
  0x2e, 0xd4, 0xff, 0xff, 0x10, 0x00, 0x00, 0x00, 0x0d, 0x00, 0x00, 0x00,
  0x1c, 0x00, 0x00, 0x00, 0x2c, 0x00, 0x00, 0x00, 0x04, 0x00, 0x00, 0x00,
  0x01, 0x00, 0x00, 0x00, 0x15, 0x00, 0x00, 0x00, 0x01, 0x00, 0x00, 0x00,
  0x10, 0x00, 0x00, 0x00, 0x0c, 0x00, 0x00, 0x00, 0x74, 0x66, 0x6c, 0x2e,
  0x63, 0x6f, 0x6e, 0x76, 0x5f, 0x32, 0x64, 0x31, 0x00, 0x00, 0x00, 0x00,
  0x74, 0xd4, 0xff, 0xff, 0x00, 0x00, 0x0e, 0x00, 0x1a, 0x00, 0x08, 0x00,
  0x0c, 0x00, 0x10, 0x00, 0x07, 0x00, 0x14, 0x00, 0x0e, 0x00, 0x00, 0x00,
  0x00, 0x00, 0x00, 0x05, 0x01, 0x00, 0x00, 0x00, 0x3c, 0x00, 0x00, 0x00,
  0x30, 0x00, 0x00, 0x00, 0x14, 0x00, 0x00, 0x00, 0x00, 0x00, 0x0e, 0x00,
  0x18, 0x00, 0x17, 0x00, 0x10, 0x00, 0x0c, 0x00, 0x08, 0x00, 0x04, 0x00,
  0x0e, 0x00, 0x00, 0x00, 0x03, 0x00, 0x00, 0x00, 0x03, 0x00, 0x00, 0x00,
  0x03, 0x00, 0x00, 0x00, 0x03, 0x00, 0x00, 0x00, 0x00, 0x00, 0x00, 0x01,
  0x01, 0x00, 0x00, 0x00, 0x0b, 0x00, 0x00, 0x00, 0x01, 0x00, 0x00, 0x00,
  0x0a, 0x00, 0x00, 0x00, 0x46, 0xff, 0xff, 0xff, 0x00, 0x00, 0x00, 0x11,
  0x01, 0x00, 0x00, 0x00, 0xda, 0xd4, 0xff, 0xff, 0x10, 0x00, 0x00, 0x00,
  0x0c, 0x00, 0x00, 0x00, 0x1c, 0x00, 0x00, 0x00, 0x40, 0x00, 0x00, 0x00,
  0x04, 0x00, 0x00, 0x00, 0x01, 0x00, 0x00, 0x00, 0x15, 0x00, 0x00, 0x00,
  0x01, 0x00, 0x00, 0x00, 0x08, 0x00, 0x00, 0x00, 0x20, 0x00, 0x00, 0x00,
  0x73, 0x65, 0x71, 0x75, 0x65, 0x6e, 0x74, 0x69, 0x61, 0x6c, 0x2f, 0x6d,
  0x61, 0x78, 0x5f, 0x70, 0x6f, 0x6f, 0x6c, 0x69, 0x6e, 0x67, 0x32, 0x64,
  0x2f, 0x4d, 0x61, 0x78, 0x50, 0x6f, 0x6f, 0x6c, 0x00, 0x00, 0x00, 0x00,
  0x34, 0xd5, 0xff, 0xff, 0x00, 0x00, 0x0e, 0x00, 0x14, 0x00, 0x00, 0x00,
  0x08, 0x00, 0x0c, 0x00, 0x07, 0x00, 0x10, 0x00, 0x0e, 0x00, 0x00, 0x00,
  0x00, 0x00, 0x00, 0x01, 0x30, 0x00, 0x00, 0x00, 0x24, 0x00, 0x00, 0x00,
  0x10, 0x00, 0x00, 0x00, 0x0c, 0x00, 0x10, 0x00, 0x00, 0x00, 0x04, 0x00,
  0x08, 0x00, 0x0f, 0x00, 0x0c, 0x00, 0x00, 0x00, 0x01, 0x00, 0x00, 0x00,
  0x01, 0x00, 0x00, 0x00, 0x00, 0x00, 0x00, 0x01, 0x01, 0x00, 0x00, 0x00,
  0x0a, 0x00, 0x00, 0x00, 0x03, 0x00, 0x00, 0x00, 0x00, 0x00, 0x00, 0x00,
  0x06, 0x00, 0x00, 0x00, 0x08, 0x00, 0x00, 0x00, 0x00, 0x00, 0x0a, 0x00,
  0x0c, 0x00, 0x07, 0x00, 0x00, 0x00, 0x08, 0x00, 0x0a, 0x00, 0x00, 0x00,
  0x00, 0x00, 0x00, 0x03, 0x01, 0x00, 0x00, 0x00, 0x9e, 0xd5, 0xff, 0xff,
  0x10, 0x00, 0x00, 0x00, 0x0b, 0x00, 0x00, 0x00, 0x1c, 0x00, 0x00, 0x00,
  0x28, 0x00, 0x00, 0x00, 0x04, 0x00, 0x00, 0x00, 0x01, 0x00, 0x00, 0x00,
  0x40, 0x00, 0x00, 0x00, 0x03, 0x00, 0x00, 0x00, 0x08, 0x00, 0x00, 0x00,
  0x0b, 0x00, 0x00, 0x00, 0x74, 0x66, 0x6c, 0x2e, 0x63, 0x6f, 0x6e, 0x76,
  0x5f, 0x32, 0x64, 0x00, 0x88, 0xd5, 0xff, 0xff, 0x7e, 0xd6, 0xff, 0xff,
  0x04, 0x00, 0x00, 0x00, 0x40, 0x00, 0x00, 0x00, 0x98, 0x02, 0x43, 0xc0,
  0x6e, 0x5e, 0xed, 0xbf, 0x62, 0xd5, 0xb8, 0x3f, 0x18, 0xe1, 0x25, 0xc0,
  0xdb, 0x30, 0xfe, 0xbf, 0xe3, 0x02, 0xbf, 0xbf, 0x5c, 0x6c, 0x7c, 0x3f,
  0x79, 0x4a, 0xbf, 0xbf, 0x44, 0xd1, 0xa0, 0xbe, 0x4d, 0x2c, 0x1f, 0x40,
  0x96, 0x3f, 0x17, 0x3f, 0xd7, 0xf2, 0x30, 0x3f, 0x7d, 0x81, 0x0d, 0xc0,
  0xb9, 0x16, 0xe7, 0x3f, 0x14, 0x1b, 0x3c, 0xc0, 0x49, 0x2b, 0x0e, 0x3f,
  0x26, 0xd6, 0xff, 0xff, 0x10, 0x00, 0x00, 0x00, 0x0a, 0x00, 0x00, 0x00,
  0x10, 0x00, 0x00, 0x00, 0x20, 0x00, 0x00, 0x00, 0x01, 0x00, 0x00, 0x00,
  0x10, 0x00, 0x00, 0x00, 0x0d, 0x00, 0x00, 0x00, 0x73, 0x74, 0x64, 0x2e,
  0x63, 0x6f, 0x6e, 0x73, 0x74, 0x61, 0x6e, 0x74, 0x31, 0x00, 0x00, 0x00,
  0x08, 0xd6, 0xff, 0xff, 0xfe, 0xd6, 0xff, 0xff, 0x04, 0x00, 0x00, 0x00,
  0x20, 0x00, 0x00, 0x00, 0x17, 0xdf, 0xa0, 0xbf, 0x02, 0x9b, 0x6a, 0xc0,
  0x59, 0xfe, 0x8d, 0xbf, 0x33, 0x4f, 0x35, 0xc0, 0x61, 0x76, 0x1d, 0xbe,
  0x03, 0x08, 0x11, 0xbf, 0x55, 0x4e, 0x4e, 0xc0, 0xcb, 0xd0, 0x5f, 0xbd,
  0x86, 0xd6, 0xff, 0xff, 0x10, 0x00, 0x00, 0x00, 0x09, 0x00, 0x00, 0x00,
  0x10, 0x00, 0x00, 0x00, 0x20, 0x00, 0x00, 0x00, 0x01, 0x00, 0x00, 0x00,
  0x08, 0x00, 0x00, 0x00, 0x0c, 0x00, 0x00, 0x00, 0x73, 0x74, 0x64, 0x2e,
  0x63, 0x6f, 0x6e, 0x73, 0x74, 0x61, 0x6e, 0x74, 0x00, 0x00, 0x00, 0x00,
  0x68, 0xd6, 0xff, 0xff, 0x5e, 0xd7, 0xff, 0xff, 0x04, 0x00, 0x00, 0x00,
  0x00, 0x08, 0x00, 0x00, 0x51, 0xa6, 0xfe, 0x3c, 0x60, 0x9b, 0x15, 0x3f,
  0x9a, 0x4b, 0x9d, 0xbe, 0x3b, 0x6d, 0x7e, 0x3d, 0xe5, 0xb1, 0x8d, 0x3e,
  0xd2, 0xc6, 0x3f, 0xbe, 0x01, 0xdc, 0xe4, 0x3d, 0x63, 0x9f, 0x28, 0xbf,
  0xd9, 0x38, 0xd1, 0xbd, 0xfe, 0xaa, 0x13, 0x3e, 0xc1, 0xa7, 0x1f, 0xbf,
  0x59, 0x0a, 0x2c, 0xbe, 0x2c, 0x6b, 0x27, 0xbd, 0xd0, 0x3f, 0x4d, 0xbe,
  0x2f, 0xd6, 0x8c, 0xbe, 0xaf, 0x3a, 0xc6, 0xbd, 0x1a, 0x91, 0x09, 0xbe,
  0x5b, 0xe3, 0x39, 0x3e, 0x44, 0xb7, 0xed, 0xbe, 0x69, 0xc7, 0x16, 0x3e,
  0x95, 0x1b, 0x5b, 0xbe, 0xba, 0x74, 0x28, 0x39, 0xa7, 0xe0, 0xdb, 0xbe,
  0x23, 0x21, 0xf8, 0x3c, 0xa4, 0x21, 0xfc, 0xbd, 0x6e, 0xbb, 0x1d, 0x3d,
  0xf7, 0x18, 0x14, 0xbe, 0x2c, 0x04, 0x4b, 0x3e, 0x74, 0x40, 0x80, 0xbe,
  0x84, 0x0d, 0x16, 0x3f, 0xc2, 0xf5, 0x2b, 0xbd, 0xf9, 0x23, 0xce, 0xbd,
  0x96, 0xd1, 0x82, 0xbb, 0xed, 0x19, 0x4a, 0xbd, 0x73, 0x5a, 0x33, 0xbe,
  0x78, 0x91, 0xae, 0xbd, 0xfa, 0xc3, 0x53, 0xbe, 0x6a, 0xd9, 0xb7, 0x3c,
  0x70, 0x44, 0x86, 0xbe, 0x94, 0x0e, 0xc1, 0xbe, 0x1c, 0x56, 0xaf, 0x3c,
  0x2e, 0x39, 0xf0, 0xbd, 0xe1, 0x39, 0xf9, 0xbd, 0x4a, 0xe2, 0x65, 0xbd,
  0xd3, 0xe8, 0x8b, 0xbe, 0xce, 0x6d, 0x6f, 0xbd, 0x85, 0x32, 0x0e, 0xbd,
  0x5d, 0xdb, 0x7f, 0xbe, 0xe1, 0x47, 0xe5, 0xbc, 0x5b, 0xc5, 0xf7, 0xbd,
  0x04, 0x29, 0x1d, 0xbe, 0x02, 0xe2, 0x59, 0xbd, 0x3d, 0xba, 0xc6, 0xbc,
  0xc6, 0x18, 0x35, 0xbd, 0x19, 0xc5, 0x47, 0x3f, 0x30, 0x3b, 0x46, 0xbe,
  0x28, 0x8d, 0x48, 0x39, 0xa8, 0xe7, 0xa8, 0x3d, 0x9d, 0xe1, 0xcc, 0xbe,
  0xa1, 0x66, 0x90, 0xbb, 0xc3, 0x64, 0x94, 0xbd, 0x62, 0x24, 0x11, 0xbe,
  0x55, 0xb8, 0x3b, 0xbe, 0x1d, 0x7e, 0x4e, 0xbe, 0xfd, 0x57, 0x1b, 0x3d,
  0x32, 0xd5, 0xbe, 0x3c, 0x56, 0x4d, 0xfa, 0xbc, 0x4f, 0xe0, 0x31, 0xbe,
  0x90, 0x7d, 0xc4, 0x3d, 0xe2, 0x81, 0xc9, 0x3d, 0xb5, 0x31, 0x93, 0x3d,
  0x63, 0xd8, 0x46, 0x3d, 0x5b, 0x69, 0xc8, 0x3b, 0x2f, 0x69, 0x83, 0x3c,
  0xfb, 0x11, 0x9e, 0xbc, 0x88, 0x64, 0x56, 0x3a, 0x0d, 0xb1, 0x45, 0x3e,
  0x5b, 0xb5, 0x56, 0xbc, 0x5b, 0x34, 0xe4, 0xbd, 0x6e, 0xd4, 0x4f, 0xbc,
  0x5d, 0x68, 0x10, 0x3e, 0x70, 0xf1, 0x50, 0x3d, 0x58, 0xbf, 0x75, 0x3d,
  0xe6, 0x71, 0x03, 0x3e, 0xa2, 0x86, 0xb5, 0xbd, 0x69, 0x57, 0x7a, 0xba,
  0x0d, 0x54, 0xf9, 0xbc, 0xfc, 0xb1, 0x15, 0x3e, 0xee, 0x8a, 0xaa, 0xbd,
  0x67, 0x74, 0x2f, 0xbe, 0x0e, 0x53, 0xe4, 0xbd, 0x9a, 0x2d, 0x9d, 0xbc,
  0x5b, 0xf7, 0x56, 0x3e, 0x0d, 0x4f, 0x20, 0xbc, 0x9c, 0x55, 0xb8, 0xbc,
  0x43, 0x5c, 0x7d, 0x3d, 0x83, 0x8c, 0x8c, 0xbe, 0xf5, 0x8d, 0x35, 0xbd,
  0x1b, 0xf6, 0xde, 0xbd, 0xdb, 0x40, 0xbb, 0xbc, 0xb1, 0xce, 0x31, 0xbe,
  0x0b, 0x44, 0xe8, 0x3e, 0xb9, 0x2a, 0x02, 0x3d, 0xb8, 0x0c, 0x6b, 0x3c,
  0xde, 0x6a, 0x16, 0xbf, 0x97, 0x28, 0x74, 0x3e, 0xf7, 0x27, 0xcf, 0xbd,
  0x45, 0x46, 0x34, 0x3d, 0x9e, 0x9d, 0xd7, 0xbd, 0xd5, 0xad, 0xa1, 0xbe,
  0x13, 0x97, 0xe1, 0xbc, 0x15, 0x1f, 0xf0, 0xbd, 0x6e, 0x46, 0x7e, 0xbc,
  0x04, 0x94, 0xc8, 0xbd, 0x6a, 0x45, 0x68, 0x3e, 0x80, 0x74, 0xc1, 0x3e,
  0xd1, 0xf2, 0x54, 0x3d, 0xaa, 0xa5, 0x49, 0xbf, 0x4c, 0x04, 0x35, 0x3e,
  0xfa, 0x2c, 0x3e, 0xbf, 0xa7, 0x31, 0x11, 0x3e, 0x6d, 0x61, 0x60, 0x3e,
  0x0d, 0xa9, 0xd7, 0xbd, 0x68, 0xd1, 0x28, 0x3e, 0xb7, 0x5c, 0xc9, 0x3d,
  0xb8, 0x2f, 0xf6, 0xbe, 0x71, 0x5a, 0x1a, 0xbe, 0x9c, 0x2b, 0x61, 0xbf,
  0x8a, 0xb9, 0x8e, 0x3e, 0x40, 0x56, 0x36, 0x3e, 0xc8, 0x3a, 0x50, 0x3e,
  0x15, 0x2b, 0x26, 0xbd, 0x5a, 0x8e, 0x5c, 0x3e, 0xb0, 0x36, 0xef, 0xbd,
  0x05, 0x93, 0x98, 0x3d, 0x19, 0x62, 0x3d, 0xbf, 0xe3, 0xf9, 0x5e, 0x3d,
  0xc2, 0x79, 0x11, 0xbd, 0x17, 0x92, 0x04, 0xbe, 0xe6, 0xd9, 0xbe, 0x3d,
  0xb2, 0x67, 0x6b, 0x3d, 0x39, 0x7f, 0x98, 0xbe, 0x97, 0xb9, 0xe8, 0xbe,
  0xa1, 0xb3, 0x5d, 0xbe, 0xf5, 0xbd, 0xc2, 0xbd, 0x1f, 0xea, 0x15, 0xbe,
  0x1a, 0x42, 0x51, 0xbd, 0x01, 0x65, 0xc2, 0x3d, 0x63, 0x52, 0x26, 0xbe,
  0x9b, 0x0f, 0x2e, 0x3e, 0xeb, 0x21, 0x79, 0xbd, 0x9f, 0x72, 0x46, 0x3e,
  0xe3, 0xf9, 0x29, 0xbe, 0x53, 0xfa, 0x34, 0xbe, 0xb3, 0x90, 0x47, 0xbe,
  0xd4, 0xd9, 0xa0, 0xbd, 0xd3, 0xa8, 0x6b, 0xbe, 0x8b, 0x50, 0x9b, 0xbb,
  0xa7, 0xdc, 0xa5, 0x3d, 0x5e, 0x7a, 0x27, 0x3d, 0xaf, 0x7a, 0x90, 0xbd,
  0xd9, 0x14, 0x9e, 0xbc, 0xee, 0x8e, 0xb4, 0xbe, 0x0b, 0xfc, 0x14, 0x3e,
  0x78, 0xde, 0x1b, 0xbe, 0xbd, 0xbb, 0x05, 0xbe, 0x21, 0x9f, 0xd1, 0x3c,
  0x22, 0x5b, 0xdf, 0xbd, 0xcc, 0x71, 0x49, 0xbd, 0x2d, 0xa4, 0xc8, 0xbd,
  0x46, 0x47, 0xdf, 0xbd, 0x8c, 0x60, 0x42, 0x3f, 0xd6, 0xb0, 0x6f, 0xbd,
  0x86, 0x96, 0xde, 0x3c, 0x8e, 0x9b, 0x37, 0xbe, 0xd6, 0x38, 0x81, 0xbc,
  0xe1, 0x85, 0x46, 0xbe, 0xc7, 0xcd, 0x46, 0xbd, 0x85, 0xba, 0x34, 0xbe,
  0xb5, 0xc1, 0x10, 0x3c, 0xf9, 0x31, 0x70, 0xbe, 0x24, 0x20, 0x2b, 0xbc,
  0x44, 0x4d, 0x10, 0xbd, 0x47, 0x7d, 0xa2, 0x3c, 0x2b, 0x8f, 0xa9, 0xbd,
  0x9d, 0x15, 0xd2, 0xbc, 0x43, 0x7c, 0xf7, 0xbd, 0xb3, 0x6e, 0x3e, 0x3f,
  0xd0, 0x39, 0xef, 0xbd, 0x9e, 0x23, 0x52, 0x3d, 0x82, 0x69, 0xe1, 0x3d,
  0x71, 0xd5, 0xa4, 0x3c, 0x0e, 0xc6, 0x25, 0xbe, 0x6f, 0x62, 0xe8, 0xbd,
  0xc2, 0x8f, 0xd0, 0xbe, 0x81, 0x3a, 0x98, 0xbe, 0xa9, 0x15, 0x8a, 0xbe,
  0xa7, 0x78, 0x20, 0xbe, 0x01, 0x95, 0xbb, 0xbe, 0xb7, 0x44, 0x46, 0xbe,
  0x1c, 0x79, 0xc8, 0x3e, 0xaa, 0x16, 0x18, 0xbe, 0xa7, 0xcb, 0x18, 0x3e,
  0x4b, 0xd6, 0xc2, 0xbc, 0x4e, 0x3a, 0x28, 0xbe, 0x30, 0xb1, 0xcd, 0x3e,
  0x02, 0x07, 0xb1, 0x3d, 0xeb, 0xfa, 0xe6, 0xbd, 0xa8, 0x40, 0x0e, 0x3c,
  0x83, 0x22, 0xbc, 0xbd, 0xa9, 0x21, 0xfb, 0xbc, 0xff, 0x3d, 0x5c, 0x3d,
  0x73, 0x8c, 0x67, 0xbd, 0x7a, 0xd4, 0x65, 0xbc, 0xa4, 0x41, 0x40, 0x3c,
  0x72, 0xc1, 0x38, 0xbb, 0xd8, 0x9f, 0x8f, 0x3d, 0x50, 0x31, 0x06, 0x3d,
  0xaf, 0x4d, 0x97, 0x3b, 0x42, 0x05, 0xbd, 0xbd, 0x57, 0x03, 0x4e, 0xbd,
  0x79, 0xea, 0x0d, 0xbe, 0x35, 0xe9, 0x5a, 0x3e, 0xa9, 0xdd, 0x1d, 0xbe,
  0x43, 0x28, 0x7e, 0xbf, 0x80, 0xfb, 0x40, 0xbc, 0x0c, 0xec, 0xc2, 0xbd,
  0x44, 0x5f, 0x1b, 0xbc, 0xec, 0x4d, 0xfc, 0xbc, 0xb5, 0x7b, 0x8f, 0xbf,
  0xc9, 0x80, 0x1f, 0xbd, 0xbc, 0x28, 0xc0, 0x3e, 0xeb, 0x63, 0xe0, 0xbe,
  0xf2, 0xfe, 0x02, 0x3f, 0xbe, 0xe7, 0xbb, 0xbd, 0x34, 0x2e, 0xc7, 0xbc,
  0x27, 0x66, 0x08, 0xbc, 0x50, 0x62, 0x9c, 0xbf, 0x76, 0x67, 0xf8, 0xbb,
  0x7e, 0x06, 0x78, 0xbe, 0xc4, 0xd8, 0x55, 0xbc, 0xa2, 0x83, 0xe6, 0x3d,
  0x9e, 0xe2, 0x53, 0x3e, 0xc3, 0x5b, 0x68, 0x3e, 0x29, 0x5d, 0xaf, 0x3c,
  0x8e, 0x7c, 0x17, 0xbe, 0x99, 0x8a, 0x81, 0x3c, 0xb9, 0x75, 0x54, 0xbf,
  0xf6, 0xf0, 0xa5, 0x3d, 0xa7, 0x80, 0x1d, 0x3e, 0xba, 0x56, 0x81, 0xbc,
  0xb0, 0x4a, 0x17, 0x3e, 0x19, 0xf1, 0x7d, 0x3c, 0xa9, 0x3d, 0x17, 0x3d,
  0x99, 0x7f, 0x54, 0x3b, 0xb2, 0xe0, 0x22, 0xbf, 0x09, 0x3e, 0xd4, 0xbd,
  0x03, 0xf1, 0xaf, 0xbd, 0xf2, 0x4c, 0xc8, 0x3d, 0x35, 0x0c, 0x4c, 0xbd,
  0x8c, 0x03, 0x02, 0xbf, 0x30, 0xb0, 0xe5, 0xbc, 0xd8, 0x3b, 0x6c, 0x3d,
  0xbf, 0x97, 0x09, 0x3c, 0x00, 0x7b, 0x56, 0x3e, 0xb6, 0x54, 0xce, 0xbd,
  0x30, 0x27, 0xdd, 0xbb, 0x23, 0xe9, 0x4a, 0x3e, 0x9c, 0xdf, 0x7d, 0xbf,
  0xd2, 0xc6, 0x14, 0x3e, 0xc8, 0xec, 0x13, 0xbe, 0x00, 0xfc, 0xf7, 0x3d,
  0x3e, 0xb1, 0x55, 0xbe, 0x60, 0x93, 0x8d, 0xbd, 0xbd, 0xa7, 0x0c, 0x3e,
  0x32, 0x2e, 0x57, 0xbd, 0xf8, 0xa4, 0x9d, 0xbe, 0xe4, 0x45, 0x84, 0xbc,
  0xc5, 0x8c, 0x6e, 0x3e, 0xc6, 0xaa, 0x3c, 0xbe, 0x0f, 0xf1, 0x7d, 0xbe,
  0x84, 0xe3, 0x28, 0xbd, 0xe5, 0xf2, 0x7f, 0x3d, 0x57, 0x32, 0xe8, 0x3d,
  0x70, 0xaa, 0x0a, 0xbd, 0x23, 0x72, 0xa1, 0xbe, 0x8c, 0xe6, 0x0e, 0x3e,
  0x87, 0x84, 0xbd, 0xbe, 0x3a, 0x79, 0x2d, 0xbe, 0x3a, 0xff, 0x03, 0xbe,
  0x8f, 0x46, 0xf2, 0xbd, 0x1b, 0xbf, 0xd4, 0xbd, 0xca, 0x39, 0x1b, 0xbe,
  0x93, 0x0c, 0x08, 0x3d, 0xec, 0x75, 0xe5, 0xbe, 0x0a, 0x93, 0xb7, 0x3c,
  0xc1, 0xdd, 0x24, 0xbe, 0xc6, 0x1c, 0xbe, 0x3d, 0xfe, 0x7d, 0x82, 0xbd,
  0xa4, 0xad, 0x73, 0xbd, 0xea, 0x15, 0x23, 0xbe, 0x95, 0x95, 0x8b, 0xba,
  0x67, 0x90, 0x19, 0xbd, 0xad, 0xa2, 0xfa, 0x3d, 0xff, 0xb4, 0xe1, 0xbe,
  0x81, 0x64, 0x02, 0xbd, 0x0b, 0xb1, 0x1f, 0x3e, 0xf9, 0x3b, 0xf7, 0x3e,
  0x4f, 0x89, 0x73, 0xbd, 0x53, 0xc8, 0xb1, 0xbe, 0x33, 0x8a, 0x24, 0x3e,
  0x1f, 0xa7, 0x42, 0xbe, 0x31, 0x15, 0x06, 0xbe, 0x68, 0xff, 0x1a, 0x3d,
  0x13, 0x91, 0x12, 0x3d, 0xd5, 0x69, 0xe7, 0x3c, 0xb0, 0x27, 0x78, 0x3d,
  0xe5, 0xe3, 0xaf, 0xbf, 0x77, 0x69, 0xdb, 0x3e, 0x3b, 0x49, 0x3c, 0xbf,
  0x25, 0x82, 0x94, 0x3d, 0x57, 0xbd, 0x53, 0x3e, 0xdb, 0x75, 0x97, 0xbd,
  0xb6, 0x38, 0xc6, 0x3d, 0x4a, 0x2c, 0xfc, 0xbd, 0x56, 0x62, 0x39, 0xbe,
  0x44, 0x77, 0xaa, 0xbd, 0xab, 0x61, 0x8b, 0xbd, 0xac, 0x72, 0x50, 0x3e,
  0x1e, 0x9c, 0x1a, 0x3e, 0xf7, 0xb0, 0x06, 0xbc, 0x38, 0xf1, 0x6d, 0x3d,
  0x41, 0x32, 0xcf, 0x3d, 0x71, 0xae, 0x2f, 0xbe, 0xe2, 0x1e, 0x6f, 0xbd,
  0xe9, 0xca, 0x01, 0xbe, 0x95, 0x84, 0xae, 0x3d, 0x8a, 0x91, 0x16, 0xbb,
  0xa0, 0xa5, 0xd6, 0x3e, 0xea, 0x1f, 0xa8, 0x3d, 0x6a, 0xc4, 0x10, 0x3d,
  0x88, 0x7d, 0xfd, 0xbd, 0x0e, 0xf3, 0xc7, 0x3b, 0x5b, 0x62, 0xfc, 0xbc,
  0xbf, 0x0c, 0x65, 0xbe, 0xef, 0x7c, 0x4d, 0x3d, 0xf0, 0x8a, 0xa7, 0xbd,
  0xb4, 0x74, 0xbf, 0x3c, 0x6b, 0xa3, 0x0a, 0xbe, 0x10, 0xef, 0x06, 0xbd,
  0xcc, 0xdc, 0x3a, 0xbd, 0xc8, 0x93, 0x97, 0x3d, 0x02, 0x4d, 0x9d, 0xbc,
  0x0a, 0xa4, 0x77, 0xbd, 0x31, 0x53, 0x07, 0xbe, 0xf5, 0x63, 0x8b, 0xbd,
  0xfe, 0x55, 0xd6, 0xbd, 0x33, 0x6f, 0x23, 0x3e, 0xcd, 0xe7, 0xa2, 0xbe,
  0x8a, 0xfb, 0x96, 0x3d, 0xc3, 0x0b, 0x06, 0x3d, 0x10, 0xa9, 0x87, 0xbe,
  0xc8, 0x6a, 0x22, 0xbe, 0x1d, 0xb9, 0xc2, 0xbe, 0x4c, 0x59, 0xc8, 0x3d,
  0x26, 0xb7, 0xb8, 0xbb, 0x54, 0xbf, 0x86, 0xbe, 0xcb, 0x13, 0xba, 0x3e,
  0xbc, 0xbd, 0x0b, 0x3c, 0x20, 0xcb, 0x49, 0xbe, 0xa9, 0xe4, 0x6d, 0xbe,
  0xa6, 0x06, 0x6d, 0xbe, 0x27, 0x32, 0xa3, 0x3e, 0x45, 0xc9, 0x0c, 0x3e,
  0x9e, 0x57, 0x1a, 0xbe, 0x82, 0x64, 0x12, 0xbe, 0x7f, 0x45, 0x02, 0xbe,
  0x8b, 0xa6, 0x18, 0x3e, 0xbe, 0x40, 0xbb, 0xbe, 0xac, 0x68, 0x95, 0x3d,
  0x4b, 0x2c, 0xee, 0xbe, 0xb4, 0x6f, 0x92, 0x3d, 0xbd, 0x6d, 0x75, 0xbe,
  0x8e, 0x68, 0x14, 0xbe, 0x21, 0xfc, 0xfd, 0xbd, 0x94, 0x3e, 0x0d, 0xbe,
  0x16, 0x8d, 0x55, 0xbe, 0x56, 0xfe, 0xac, 0xbd, 0x99, 0x4f, 0xfb, 0xbd,
  0xc0, 0xb5, 0x6a, 0xbd, 0x1a, 0x69, 0x0a, 0xbf, 0x16, 0x0c, 0x0c, 0xbf,
  0x96, 0x3a, 0x9f, 0xbe, 0x17, 0xbd, 0x5f, 0x3e, 0x76, 0xdc, 0x3a, 0xbe,
  0x24, 0xc8, 0xe6, 0xbd, 0x59, 0xc2, 0x64, 0x3d, 0x80, 0x20, 0x78, 0xbe,
  0x46, 0x18, 0xa4, 0xbd, 0x14, 0x2a, 0xab, 0xbd, 0x58, 0x1c, 0x88, 0xbd,
  0x60, 0x1a, 0x4f, 0x3e, 0x12, 0xb1, 0x11, 0x3c, 0xed, 0x70, 0x40, 0xbd,
  0x9d, 0x34, 0x45, 0xbd, 0x6f, 0x4a, 0xcb, 0xbd, 0x25, 0x8a, 0x17, 0x3e,
  0x74, 0xa0, 0x11, 0xbf, 0x82, 0xd6, 0x18, 0x3e, 0xf2, 0xc5, 0x40, 0xbd,
  0xe8, 0x4c, 0x03, 0xbd, 0xf7, 0x98, 0xd1, 0xbd, 0x5e, 0x5d, 0x4e, 0x3d,
  0xc5, 0xe7, 0x2b, 0x3e, 0x01, 0xde, 0x11, 0x3f, 0x16, 0x48, 0xe4, 0xbe,
  0xb8, 0xfa, 0xcd, 0xbe, 0x32, 0x32, 0x97, 0xbe, 0x16, 0xf7, 0x9f, 0x3d,
  0x3d, 0xec, 0x88, 0xbd, 0x53, 0x87, 0x2a, 0xbd, 0xc1, 0x47, 0x89, 0xbe,
  0x19, 0xfa, 0x40, 0xbe, 0x27, 0x8b, 0x68, 0x3e, 0x21, 0xb9, 0xcc, 0xbe,
  0xd8, 0xa8, 0x93, 0x3e, 0x0b, 0x51, 0x9d, 0xbc, 0x0e, 0xba, 0x8b, 0xbd,
  0x4e, 0x91, 0x15, 0x3e, 0xdd, 0xbd, 0x63, 0xbe, 0xec, 0xdf, 0x9f, 0x3d,
  0x59, 0x26, 0x2d, 0xbd, 0xe4, 0x0e, 0x95, 0xbe, 0xc7, 0xd2, 0x34, 0x3d,
  0xf3, 0xc6, 0xa9, 0xbd, 0xe3, 0x40, 0x8f, 0xbd, 0x09, 0x21, 0x92, 0x3e,
  0x93, 0x1f, 0x09, 0xbe, 0x27, 0xb2, 0xb3, 0xbe, 0xff, 0xbb, 0x9a, 0xbd,
  0x70, 0x85, 0x33, 0xbe, 0x2d, 0x88, 0x11, 0xbe, 0xc8, 0x6c, 0xa4, 0x3d,
  0xde, 0x78, 0x79, 0xbe, 0xc1, 0xc3, 0xa4, 0xbd, 0x85, 0x56, 0x7a, 0x3d,
  0x86, 0xd9, 0x62, 0xbe, 0xd6, 0x09, 0x8c, 0x3d, 0xcf, 0x65, 0xb1, 0xbd,
  0x84, 0xbb, 0x84, 0xbe, 0x6e, 0x84, 0x16, 0xbe, 0x58, 0xd2, 0x04, 0x3c,
  0x56, 0x32, 0x9b, 0xbe, 0xa5, 0x3c, 0x58, 0x3e, 0x0d, 0xa9, 0x21, 0xbe,
  0x97, 0x7d, 0xc1, 0xbe, 0xd9, 0x23, 0xa8, 0xbe, 0xe1, 0x2c, 0xf3, 0x3d,
  0xd9, 0xd0, 0xd3, 0xbc, 0x38, 0xae, 0x7e, 0x3b, 0xbc, 0x0f, 0x6c, 0xbe,
  0x41, 0xf5, 0x56, 0x3e, 0x72, 0x19, 0x62, 0x3d, 0x64, 0xc3, 0x45, 0xbf,
  0xd3, 0x79, 0x17, 0x3d, 0x90, 0x3a, 0xbe, 0x3e, 0x3a, 0x16, 0xdf, 0xbe,
  0x72, 0xae, 0x88, 0x3e, 0xb7, 0xf1, 0xb2, 0x3d, 0x51, 0xe7, 0xa6, 0xbe,
  0x73, 0x3e, 0x47, 0x3e, 0x35, 0x37, 0x1f, 0xbf, 0x40, 0x6e, 0xb8, 0xbd,
  0xa5, 0x80, 0x87, 0x3e, 0x40, 0x4f, 0x59, 0xbf, 0xaa, 0xd7, 0x06, 0x3d,
  0xf2, 0xa5, 0x0c, 0xbd, 0x1e, 0x7b, 0x3a, 0xbb, 0x06, 0x76, 0x27, 0xbf,
  0x6d, 0xe8, 0xa8, 0x3e, 0xe4, 0x1e, 0x48, 0xbe, 0x84, 0xff, 0x37, 0x3c,
  0x9c, 0x72, 0xf7, 0xbc, 0x30, 0x8f, 0xc3, 0x3e, 0x4c, 0x85, 0x37, 0xbe,
  0xd6, 0xcb, 0x05, 0xbe, 0x69, 0xf5, 0x8a, 0x3e, 0xf4, 0x6e, 0xbd, 0x3c,
  0x8e, 0xba, 0x98, 0xbc, 0x8d, 0xb7, 0xb8, 0x3c, 0x45, 0x8d, 0x4b, 0xbd,
  0xf7, 0x76, 0x35, 0xbe, 0xbf, 0xfd, 0x0b, 0xbe, 0xac, 0x55, 0x2d, 0xbd,
  0xef, 0x44, 0x7a, 0xbe, 0xf8, 0x4b, 0x87, 0x3e, 0xcd, 0xa1, 0x6e, 0xbd,
  0xbc, 0x13, 0x89, 0xbe, 0xf5, 0x8c, 0xb6, 0xba, 0x2e, 0x92, 0xd2, 0xbd,
  0x20, 0xec, 0x2d, 0xbe, 0x3c, 0x45, 0x41, 0xba, 0x29, 0xbc, 0x19, 0xbb,
  0xf1, 0x1d, 0x8a, 0xbc, 0xf4, 0x19, 0xd8, 0xbd, 0xd4, 0x28, 0x47, 0x3d,
  0x5d, 0xe1, 0x5f, 0xbc, 0x7f, 0x7f, 0x1b, 0xbe, 0x1b, 0xdc, 0x2f, 0xbe,
  0x49, 0x2a, 0x87, 0xbd, 0x7e, 0x4f, 0x95, 0x3c, 0x83, 0xa2, 0xf5, 0x3d,
  0xc6, 0xde, 0xff, 0xff, 0x10, 0x00, 0x00, 0x00, 0x08, 0x00, 0x00, 0x00,
  0x1c, 0x00, 0x00, 0x00, 0x38, 0x00, 0x00, 0x00, 0x04, 0x00, 0x00, 0x00,
  0x10, 0x00, 0x00, 0x00, 0x04, 0x00, 0x00, 0x00, 0x01, 0x00, 0x00, 0x00,
  0x08, 0x00, 0x00, 0x00, 0x1a, 0x00, 0x00, 0x00, 0x73, 0x65, 0x71, 0x75,
  0x65, 0x6e, 0x74, 0x69, 0x61, 0x6c, 0x2f, 0x63, 0x6f, 0x6e, 0x76, 0x32,
  0x64, 0x5f, 0x31, 0x2f, 0x43, 0x6f, 0x6e, 0x76, 0x32, 0x44, 0x00, 0x00,
  0xc0, 0xde, 0xff, 0xff, 0xb6, 0xdf, 0xff, 0xff, 0x04, 0x00, 0x00, 0x00,
  0x80, 0x01, 0x00, 0x00, 0x59, 0x3e, 0x02, 0x3e, 0x52, 0x02, 0x30, 0xbe,
  0xf7, 0x5d, 0x76, 0xbe, 0xe9, 0xd8, 0x9a, 0x3e, 0x6b, 0xb7, 0x90, 0x3e,
  0x26, 0x0e, 0x6c, 0xbe, 0x42, 0xd0, 0xfc, 0x3d, 0x69, 0x1f, 0x88, 0x3c,
  0x61, 0x07, 0x5a, 0x3e, 0xbd, 0x74, 0x52, 0xbd, 0x4f, 0xf8, 0x44, 0x3d,
  0xb2, 0x32, 0x4a, 0x3e, 0x22, 0x0e, 0x54, 0x3d, 0x2d, 0xb0, 0x2a, 0xbe,
  0x6c, 0x32, 0xf2, 0xbc, 0x9f, 0xff, 0x24, 0x3e, 0x52, 0x1e, 0x9b, 0xbe,
  0x86, 0x45, 0x99, 0x3e, 0x3d, 0x50, 0x71, 0xbb, 0x31, 0x8c, 0x6d, 0x3e,
  0x55, 0x94, 0x0c, 0xbe, 0xca, 0x56, 0x05, 0xbe, 0xa6, 0xd1, 0x85, 0x3e,
  0x8b, 0xe4, 0x04, 0xbe, 0xff, 0xef, 0x15, 0x3e, 0x1c, 0x63, 0x94, 0x3d,
  0xcd, 0x0c, 0xc3, 0xbd, 0x12, 0xaf, 0xf8, 0xbc, 0x20, 0x15, 0x3c, 0x3e,
  0x49, 0x89, 0x2f, 0xbe, 0x05, 0xee, 0xa5, 0xbe, 0x69, 0xf2, 0xc9, 0x3c,
  0x4e, 0x32, 0x4f, 0x3e, 0x5d, 0x88, 0x35, 0x3d, 0xf3, 0xe1, 0x94, 0xbc,
  0x0c, 0xfb, 0xfb, 0x3d, 0xc7, 0x4f, 0x40, 0xbe, 0xfc, 0x04, 0xe2, 0x3e,
  0x14, 0xac, 0x8f, 0xbd, 0xce, 0xe1, 0x94, 0x3e, 0x15, 0x75, 0xaa, 0xbd,
  0xf7, 0xfc, 0x32, 0x3e, 0x46, 0x8f, 0x9f, 0xbe, 0x15, 0x07, 0x8f, 0xbe,
  0xfc, 0x88, 0x9f, 0xbb, 0xac, 0xca, 0x79, 0x3e, 0xda, 0x56, 0xc4, 0xbc,
  0xbe, 0x71, 0x81, 0xbd, 0xc1, 0x31, 0xeb, 0xbd, 0x43, 0xd8, 0x2d, 0xbe,
  0x7e, 0x1a, 0xae, 0xbd, 0x2d, 0xc1, 0x5a, 0xbe, 0xb0, 0x66, 0x81, 0xbd,
  0xec, 0x8d, 0x84, 0xba, 0xbb, 0xd9, 0xbb, 0x3c, 0x6b, 0xa6, 0x0d, 0xbe,
  0x31, 0xba, 0x9b, 0x3d, 0xab, 0x8f, 0x52, 0x3e, 0xc7, 0xe2, 0x3b, 0x3e,
  0x94, 0x65, 0x49, 0xbd, 0x5b, 0x5f, 0x8c, 0x3e, 0xbb, 0xc3, 0xc6, 0x3e,
  0x8d, 0xec, 0x29, 0xbe, 0x8c, 0x0d, 0xc0, 0x3e, 0x75, 0x01, 0xcf, 0xbd,
  0x1c, 0xbf, 0x86, 0x3e, 0x80, 0xa0, 0x38, 0x3e, 0x8b, 0x12, 0xd7, 0xbb,
  0xc2, 0x25, 0xa0, 0x3d, 0xed, 0x51, 0xc7, 0xbd, 0x97, 0x57, 0x7e, 0x3d,
  0xe4, 0x39, 0xff, 0x3c, 0x73, 0x86, 0x0e, 0x3f, 0x4a, 0xef, 0xd7, 0x3d,
  0xb8, 0xb6, 0xdb, 0x3e, 0xe0, 0xa0, 0x9e, 0x3d, 0xc4, 0x1a, 0xbe, 0xbd,
  0x60, 0x75, 0x20, 0x3d, 0x5f, 0xbe, 0xd3, 0xbe, 0x4b, 0x8a, 0x16, 0xbe,
  0xc3, 0x1b, 0x79, 0xbe, 0xb8, 0x9f, 0xb1, 0xbd, 0x61, 0x53, 0xce, 0x3d,
  0x1a, 0x42, 0x20, 0xbe, 0x1f, 0x68, 0x51, 0x3e, 0x80, 0x9e, 0xc1, 0x3e,
  0x2f, 0x3b, 0xe3, 0xbd, 0xcd, 0xb5, 0xdb, 0x3d, 0x2f, 0xf9, 0xaa, 0xbe,
  0x93, 0x8a, 0x6b, 0x3e, 0x1d, 0xf3, 0xd2, 0xbd, 0xa0, 0x5a, 0x5f, 0xbd,
  0xc6, 0xcf, 0x74, 0x3e, 0x58, 0x16, 0xd0, 0xbb, 0x78, 0x97, 0x9d, 0x3e,
  0x39, 0x47, 0xc5, 0x3e, 0x9e, 0xe0, 0xff, 0xff, 0x10, 0x00, 0x00, 0x00,
  0x07, 0x00, 0x00, 0x00, 0x1c, 0x00, 0x00, 0x00, 0x38, 0x00, 0x00, 0x00,
  0x04, 0x00, 0x00, 0x00, 0x08, 0x00, 0x00, 0x00, 0x04, 0x00, 0x00, 0x00,
  0x03, 0x00, 0x00, 0x00, 0x01, 0x00, 0x00, 0x00, 0x18, 0x00, 0x00, 0x00,
  0x73, 0x65, 0x71, 0x75, 0x65, 0x6e, 0x74, 0x69, 0x61, 0x6c, 0x2f, 0x63,
  0x6f, 0x6e, 0x76, 0x32, 0x64, 0x2f, 0x43, 0x6f, 0x6e, 0x76, 0x32, 0x44,
  0x00, 0x00, 0x00, 0x00, 0x98, 0xe0, 0xff, 0xff, 0x8e, 0xe1, 0xff, 0xff,
  0x04, 0x00, 0x00, 0x00, 0x00, 0x01, 0x00, 0x00, 0xa3, 0x79, 0x3e, 0xbe,
  0xbf, 0xde, 0xde, 0x3d, 0x66, 0xed, 0x2b, 0xbd, 0xd1, 0x59, 0xeb, 0xbd,
  0x29, 0x6b, 0xa2, 0x3e, 0x6a, 0xc9, 0xb7, 0xbe, 0xc5, 0x1a, 0xab, 0x3e,
  0x4a, 0x9e, 0x8b, 0x3e, 0x9e, 0x04, 0xd2, 0xbe, 0x31, 0x1c, 0x2a, 0xbe,
  0x6f, 0x76, 0x6f, 0x3e, 0xa7, 0xb0, 0xd1, 0xbe, 0xc8, 0xc3, 0x54, 0xbe,
  0xc2, 0x3b, 0xcb, 0x3b, 0x6b, 0x6a, 0x8f, 0x3c, 0x26, 0xea, 0xc6, 0x3e,
  0xf8, 0x3d, 0xad, 0xbd, 0xe9, 0x62, 0x31, 0x3e, 0x5c, 0x7e, 0x36, 0xbc,
  0x16, 0xa4, 0x1e, 0xbe, 0xec, 0x12, 0x1d, 0x3e, 0xe8, 0xd7, 0xb9, 0x3e,
  0x79, 0x69, 0xbb, 0x3e, 0x68, 0x17, 0x35, 0x3d, 0x0a, 0xe4, 0xb3, 0xbe,
  0x15, 0x21, 0xc4, 0xbe, 0xd6, 0xed, 0x44, 0x3e, 0xf2, 0x45, 0x00, 0xbf,
  0x90, 0x4a, 0x9e, 0x3d, 0xaf, 0x76, 0xbd, 0x3e, 0x24, 0xe0, 0x5b, 0x3d,
  0xc7, 0x19, 0xb1, 0x3e, 0x6c, 0xc0, 0x15, 0xbe, 0xc7, 0x86, 0x6f, 0x3e,
  0x40, 0xec, 0x09, 0x3c, 0xf2, 0x9b, 0x80, 0xbe, 0x96, 0xf5, 0x02, 0xbc,
  0xe7, 0xd1, 0xd2, 0x3e, 0x21, 0x26, 0x90, 0xbc, 0x19, 0x4a, 0xe2, 0x3d,
  0x3d, 0xd5, 0xae, 0xbe, 0xa4, 0x6e, 0x4b, 0xbe, 0xbf, 0x05, 0x4a, 0x3e,
  0xf0, 0x55, 0x0a, 0xbe, 0xf9, 0xac, 0xb6, 0xbe, 0xd0, 0x29, 0x0e, 0x3b,
  0x50, 0xe8, 0x04, 0x3c, 0xb2, 0xbe, 0x66, 0xbe, 0xd9, 0x7a, 0xab, 0xbd,
  0x15, 0xc9, 0x40, 0x3e, 0x4d, 0x88, 0x75, 0x3d, 0x33, 0x62, 0x39, 0xbe,
  0x91, 0x10, 0x49, 0x3e, 0x7f, 0x05, 0xc7, 0x3d, 0xff, 0xb6, 0x08, 0x3e,
  0x9f, 0x78, 0x11, 0x3e, 0x13, 0xe8, 0xd5, 0xbe, 0x1a, 0xce, 0x64, 0x3e,
  0xc2, 0x53, 0x14, 0x3e, 0xda, 0xc3, 0xb2, 0xbe, 0x6c, 0xfa, 0xb3, 0xbe,
  0xdd, 0x33, 0xbc, 0xbd, 0xfc, 0x53, 0xba, 0xbc, 0x78, 0x66, 0xc3, 0xbe,
  0xf6, 0xe1, 0xff, 0xff, 0x10, 0x00, 0x00, 0x00, 0x06, 0x00, 0x00, 0x00,
  0x14, 0x00, 0x00, 0x00, 0x30, 0x00, 0x00, 0x00, 0x02, 0x00, 0x00, 0x00,
  0x04, 0x00, 0x00, 0x00, 0x10, 0x00, 0x00, 0x00, 0x19, 0x00, 0x00, 0x00,
  0x73, 0x65, 0x71, 0x75, 0x65, 0x6e, 0x74, 0x69, 0x61, 0x6c, 0x2f, 0x64,
  0x65, 0x6e, 0x73, 0x65, 0x5f, 0x31, 0x2f, 0x4d, 0x61, 0x74, 0x4d, 0x75,
  0x6c, 0x00, 0x00, 0x00, 0xe8, 0xe1, 0xff, 0xff, 0xde, 0xe2, 0xff, 0xff,
  0x04, 0x00, 0x00, 0x00, 0x00, 0x1c, 0x00, 0x00, 0xb1, 0xf8, 0x06, 0xbe,
  0x62, 0xc3, 0x21, 0xbe, 0xf1, 0x68, 0xf7, 0x3c, 0xef, 0xf4, 0xb1, 0x3d,
  0x25, 0xa4, 0xfd, 0x3b, 0x14, 0x70, 0xa4, 0x3d, 0x51, 0xe1, 0x27, 0x3d,
  0xfa, 0x58, 0x72, 0xbe, 0x8f, 0xdf, 0x66, 0x3e, 0x7d, 0xfa, 0xe0, 0xbb,
  0x6a, 0x18, 0x4d, 0xbd, 0xf7, 0xdb, 0x50, 0x3c, 0xdd, 0x84, 0x6f, 0xbe,
  0xf4, 0xa8, 0xdf, 0xbe, 0x40, 0x86, 0x72, 0xbe, 0x44, 0xe5, 0xb0, 0x3c,
  0x2e, 0xd1, 0x15, 0x3c, 0x31, 0x13, 0x8d, 0xbd, 0x52, 0x85, 0x5d, 0x3c,
  0x2d, 0xe7, 0x09, 0x3e, 0x73, 0x76, 0xd3, 0x3a, 0x57, 0xbe, 0x99, 0xbe,
  0x0f, 0x74, 0xc2, 0xbc, 0xa5, 0x13, 0xd1, 0x3e, 0x81, 0x46, 0x83, 0xbc,
  0x57, 0x44, 0xba, 0xbe, 0x09, 0x64, 0x98, 0x3c, 0xbe, 0x3d, 0x99, 0x3b,
  0xb8, 0xf4, 0x44, 0x3d, 0xc5, 0x8f, 0x44, 0xbe, 0x9b, 0x6e, 0x83, 0x3d,
  0x99, 0x5a, 0x0d, 0x3d, 0xd7, 0xab, 0x55, 0xbd, 0xbe, 0xac, 0xa3, 0xbc,
  0xc8, 0xb4, 0x20, 0x3d, 0x24, 0x58, 0x7a, 0x3c, 0x4a, 0x66, 0x50, 0x3d,
  0x6b, 0xe6, 0x15, 0x3e, 0x4f, 0x03, 0xba, 0xbc, 0x1e, 0xfe, 0xf8, 0x3e,
  0x6a, 0xdc, 0x08, 0xbd, 0x5f, 0x55, 0x6a, 0xbd, 0x24, 0xe6, 0x9b, 0x3d,
  0x59, 0x37, 0xd0, 0xbc, 0xaf, 0x5c, 0x09, 0x3f, 0x75, 0x6b, 0xcb, 0xbe,
  0x42, 0xaa, 0x02, 0xbe, 0xd2, 0x6f, 0x1d, 0x39, 0x34, 0x9f, 0x17, 0x3e,
  0x39, 0xd1, 0x9d, 0x3e, 0x2f, 0x74, 0x33, 0x3d, 0x14, 0x08, 0x2e, 0xbe,
  0x34, 0x10, 0x3f, 0xbd, 0xe5, 0x75, 0x0c, 0x3e, 0x8a, 0x00, 0xf2, 0xbb,
  0xb2, 0x9d, 0x35, 0xbc, 0xbd, 0x2a, 0x0a, 0x3e, 0xe7, 0x6f, 0x16, 0xbc,
  0xe0, 0xbe, 0x31, 0x3d, 0xa5, 0xfe, 0xa4, 0x3c, 0x4e, 0x9c, 0xbf, 0x3e,
  0xc9, 0x61, 0xb5, 0xbe, 0x64, 0x17, 0xac, 0xbd, 0x4d, 0xcb, 0x07, 0x3d,
  0x78, 0x01, 0x52, 0x3e, 0x5c, 0x65, 0x96, 0xbc, 0xcb, 0xa2, 0x40, 0x3d,
  0x69, 0xb0, 0x42, 0x3d, 0xe6, 0x59, 0x0f, 0xbd, 0x8d, 0x2f, 0x30, 0xbc,
  0x74, 0x4f, 0xeb, 0xbc, 0x4d, 0x35, 0x97, 0xbd, 0x4b, 0xb9, 0x57, 0x3e,
  0x60, 0x88, 0xe0, 0x3c, 0xcc, 0x9d, 0x2b, 0x3d, 0xc7, 0x0c, 0xd4, 0xbc,
  0xa8, 0x15, 0xec, 0xbd, 0x9d, 0xb6, 0x90, 0x3e, 0xe9, 0x6a, 0x55, 0xbe,
  0xc9, 0x73, 0x80, 0x3c, 0xec, 0xdc, 0x4b, 0xbd, 0xf1, 0xc7, 0x72, 0xbe,
  0x3a, 0x1b, 0xe0, 0x3c, 0x54, 0x1e, 0x89, 0x3d, 0x8e, 0x8b, 0xf8, 0xbc,
  0xb0, 0x13, 0xfc, 0x3c, 0x94, 0xc1, 0x4a, 0x3d, 0x17, 0xfa, 0xa2, 0x3d,
  0xf8, 0xfc, 0xa4, 0x3e, 0x68, 0x06, 0xd7, 0xbd, 0x26, 0x46, 0x33, 0x3d,
  0x8d, 0x67, 0xae, 0xbc, 0x25, 0xb4, 0x68, 0xbe, 0xbc, 0xaa, 0xbe, 0x3e,
  0x7a, 0x1b, 0xb4, 0xbe, 0xad, 0x46, 0xdf, 0xbc, 0x95, 0x8c, 0xe6, 0xbd,
  0xc5, 0xcc, 0x63, 0xbd, 0x5b, 0xe9, 0x20, 0x3d, 0x58, 0x06, 0x4e, 0x3d,
  0x19, 0x07, 0x18, 0xbd, 0xa7, 0xe5, 0x90, 0xbd, 0xa1, 0x3c, 0xa2, 0xbc,
  0xd3, 0xec, 0x24, 0x3d, 0x94, 0x50, 0x00, 0xbc, 0x94, 0x34, 0x00, 0x3d,
  0x18, 0x73, 0x14, 0x3d, 0x78, 0x6d, 0x1a, 0xbd, 0x4a, 0xc8, 0x09, 0xbe,
  0xa7, 0x89, 0xad, 0x3c, 0x6e, 0x5c, 0xca, 0xbd, 0xca, 0xb9, 0x64, 0xbd,
  0x53, 0xac, 0x42, 0xbe, 0xb6, 0x25, 0x6d, 0xbe, 0xda, 0x63, 0xec, 0x3c,
  0x2c, 0xed, 0xdd, 0xbb, 0xc9, 0xdf, 0xbd, 0xbd, 0xf4, 0xa0, 0xa6, 0xbe,
  0x29, 0x4b, 0x23, 0xbf, 0x17, 0x77, 0x62, 0x3e, 0x27, 0x16, 0xbc, 0xbe,
  0xe2, 0x04, 0x3a, 0x3d, 0xb7, 0x56, 0x3f, 0x3e, 0xed, 0xf6, 0x9d, 0x3b,
  0x7c, 0xe8, 0x90, 0x3e, 0x16, 0xde, 0x32, 0x3e, 0xd4, 0x81, 0x09, 0xbe,
  0x1b, 0xe2, 0x6d, 0xbd, 0x92, 0xaa, 0x8a, 0xbd, 0x84, 0xfb, 0xce, 0xbd,
  0x46, 0x61, 0x9e, 0x3d, 0xdc, 0x88, 0x49, 0xbd, 0xb9, 0x1e, 0x3d, 0x3e,
  0xf2, 0x30, 0x6a, 0xbd, 0x7b, 0xf4, 0xbc, 0xbe, 0x18, 0x55, 0xa6, 0xbe,
  0x8c, 0x5b, 0x38, 0xbc, 0xa0, 0xf7, 0x88, 0xbd, 0xac, 0x12, 0xf2, 0x3d,
  0xf3, 0xd8, 0x46, 0xbd, 0x87, 0x3b, 0x9b, 0xbe, 0x9c, 0xe6, 0x9a, 0x3d,
  0xf9, 0xe5, 0x53, 0x3e, 0xcc, 0x9e, 0x0c, 0xbe, 0x9b, 0x00, 0x12, 0x3e,
  0x9b, 0xb6, 0x86, 0xbc, 0x57, 0xa3, 0x7f, 0xbc, 0xf9, 0x04, 0xcb, 0xbe,
  0x53, 0xe8, 0xb3, 0x3e, 0x8e, 0x3a, 0x83, 0xbe, 0xfc, 0xab, 0xe6, 0xbe,
  0xda, 0x4b, 0xa9, 0xbe, 0x95, 0xe6, 0xc3, 0x3c, 0x5b, 0x32, 0xe1, 0xbd,
  0x4b, 0x46, 0xa9, 0xbd, 0x7f, 0x57, 0x4f, 0xbd, 0x51, 0x55, 0xfe, 0xbe,
  0x6e, 0x1d, 0x93, 0x3d, 0x1c, 0xa0, 0x96, 0xbe, 0x89, 0x5b, 0xa5, 0xbd,
  0x24, 0xf7, 0x6d, 0xbe, 0x65, 0x5b, 0xaf, 0xbe, 0x57, 0x00, 0x4f, 0xbc,
  0xd0, 0x57, 0xa4, 0x3c, 0x25, 0x20, 0xd7, 0x3d, 0xf8, 0x96, 0x51, 0xbe,
  0xbe, 0x87, 0xb6, 0xbe, 0xea, 0xcc, 0x22, 0xbd, 0x4c, 0xe6, 0xfd, 0x3b,
  0x12, 0x33, 0xa7, 0xbe, 0xfc, 0x02, 0xf7, 0xbd, 0x9a, 0xc0, 0x8c, 0x3c,
  0x3e, 0x1f, 0x15, 0xbf, 0x34, 0xd3, 0xc0, 0x3d, 0x95, 0xe7, 0x86, 0xbe,
  0x27, 0x79, 0x1c, 0xbb, 0x53, 0x1b, 0x29, 0xbe, 0xa1, 0xb5, 0xb2, 0xbe,
  0x00, 0xf3, 0x2a, 0xbd, 0xe9, 0x69, 0xc6, 0x3c, 0x86, 0xd6, 0xfa, 0xbc,
  0x90, 0xec, 0x44, 0x3e, 0x6d, 0x46, 0xa7, 0xbe, 0x64, 0xc7, 0x5c, 0x3e,
  0x62, 0x98, 0x5a, 0xbe, 0x14, 0x02, 0x33, 0x3e, 0x30, 0x1d, 0xb1, 0xbd,
  0xa9, 0x69, 0x6a, 0x3d, 0xa4, 0x8a, 0xcd, 0xbd, 0x24, 0x4d, 0xf4, 0x3c,
  0x61, 0xa2, 0x39, 0xbd, 0x51, 0x9c, 0xee, 0xbc, 0x75, 0x9b, 0x98, 0x3c,
  0x62, 0x28, 0xac, 0xbe, 0x31, 0xf3, 0x8c, 0x3c, 0x51, 0x2b, 0x94, 0x3d,
  0x25, 0x83, 0x8f, 0xbe, 0xd8, 0x03, 0x58, 0x3d, 0xef, 0x0f, 0xa5, 0xbe,
  0x13, 0x84, 0x2c, 0x3e, 0x25, 0xb2, 0x34, 0xbe, 0xd8, 0x20, 0xdc, 0x3d,
  0x43, 0x5d, 0x87, 0x3d, 0x29, 0xcc, 0x61, 0xbc, 0xe7, 0x46, 0x0c, 0x3d,
  0x9f, 0x3e, 0x72, 0xbd, 0xf3, 0xa3, 0x9c, 0xbe, 0x18, 0xbd, 0x17, 0x3d,
  0x6a, 0x8c, 0xb3, 0xbd, 0x11, 0x4b, 0x61, 0xbd, 0x63, 0x55, 0xcf, 0xbc,
  0xfb, 0x4a, 0x25, 0x3c, 0xe8, 0xab, 0x7f, 0x3d, 0x53, 0xf2, 0xbf, 0x3d,
  0xb8, 0x0c, 0x0a, 0xbe, 0xe9, 0x09, 0x86, 0xbc, 0xb2, 0xf5, 0xe9, 0xbd,
  0x1e, 0x63, 0x32, 0x3e, 0xe3, 0x33, 0xe9, 0x3d, 0x70, 0x69, 0xb6, 0xbc,
  0x5f, 0xe7, 0x2c, 0x3d, 0x49, 0x30, 0x83, 0xba, 0xc5, 0xbb, 0x15, 0x3d,
  0x9b, 0x7c, 0xd4, 0xbd, 0x47, 0xdf, 0x18, 0xbf, 0x6b, 0x04, 0x73, 0xbf,
  0x55, 0x82, 0x50, 0x3d, 0x85, 0x8d, 0x2e, 0xbf, 0x2c, 0x6f, 0x16, 0xbe,
  0x35, 0x6a, 0x64, 0x3d, 0xad, 0x3b, 0xd7, 0x3c, 0x2e, 0xff, 0x85, 0xbe,
  0x8a, 0x49, 0xee, 0xbd, 0xa4, 0xca, 0x0b, 0xbf, 0x8a, 0xf4, 0xe5, 0x3c,
  0x5b, 0xf6, 0xd6, 0x3d, 0x2f, 0x6e, 0xc7, 0xbe, 0x1f, 0x7f, 0xbd, 0x3d,
  0x94, 0xfe, 0x15, 0xbf, 0xe3, 0x7b, 0xc5, 0x3d, 0x3b, 0x0e, 0x05, 0xbf,
  0xa6, 0x32, 0xac, 0xbe, 0xb4, 0xc3, 0x56, 0x3d, 0x66, 0x93, 0x84, 0xbe,
  0xec, 0x45, 0x7d, 0xbe, 0x7a, 0x7b, 0xff, 0x3e, 0xf2, 0x3f, 0xf2, 0x3b,
  0xd5, 0x2c, 0x62, 0xbb, 0x03, 0xc4, 0x07, 0x3e, 0x08, 0x53, 0x40, 0xbe,
  0x54, 0xd4, 0x2e, 0x3d, 0x36, 0xed, 0x6c, 0x3d, 0xbc, 0x27, 0x71, 0xbd,
  0x61, 0xae, 0xb9, 0x3d, 0xb1, 0x28, 0xad, 0x3e, 0xc7, 0xea, 0xc3, 0xbb,
  0x7d, 0x69, 0xcd, 0x3d, 0xe6, 0x16, 0x1c, 0xbe, 0xb5, 0x84, 0x65, 0x3d,
  0x07, 0x4c, 0xcf, 0x3c, 0x5e, 0x25, 0x0c, 0xbe, 0x7e, 0xd4, 0x42, 0x3f,
  0xc5, 0x36, 0xc1, 0xbc, 0x70, 0x55, 0x4c, 0x3e, 0xa5, 0xc7, 0x4b, 0x3d,
  0xb7, 0x5c, 0x0d, 0xbf, 0x8e, 0x04, 0xc4, 0x3d, 0xea, 0x46, 0x4c, 0xbd,
  0x9f, 0x58, 0x4a, 0xbd, 0xfc, 0xc1, 0x05, 0x3e, 0x90, 0xe7, 0xc3, 0x3d,
  0xc8, 0xdd, 0x97, 0xbd, 0x91, 0x92, 0xe5, 0x3e, 0x32, 0xb5, 0x26, 0xbc,
  0x68, 0x13, 0x8d, 0x3d, 0x63, 0xb1, 0x8f, 0xbd, 0x79, 0xef, 0x1a, 0x3b,
  0x53, 0xc9, 0x33, 0x3f, 0x5f, 0xd4, 0x74, 0x3a, 0x3c, 0xbe, 0xbe, 0x3e,
  0xa2, 0xe4, 0x1a, 0xbe, 0x5b, 0x14, 0x11, 0xbf, 0x6b, 0x4f, 0xd7, 0x3d,
  0xee, 0x80, 0xa8, 0xbc, 0x4e, 0x97, 0xcf, 0x3d, 0x4b, 0x86, 0xd8, 0x3d,
  0xf4, 0x64, 0x88, 0x3d, 0xf6, 0x06, 0xb9, 0xbd, 0x25, 0xb4, 0xb0, 0x3e,
  0x13, 0x7b, 0xc3, 0xbe, 0x38, 0xbf, 0x8b, 0x3d, 0xb5, 0xe2, 0xc0, 0xbe,
  0x31, 0xf7, 0x80, 0x3e, 0x2b, 0x7c, 0x8d, 0x3e, 0x18, 0x80, 0x6a, 0xbb,
  0xc7, 0x60, 0x26, 0x3e, 0x61, 0x5c, 0xda, 0xbd, 0x87, 0x5e, 0x1b, 0xbf,
  0x9c, 0x59, 0x11, 0x3e, 0x77, 0x35, 0xaf, 0xbb, 0x9d, 0x4c, 0x89, 0xbe,
  0x7c, 0xac, 0xcd, 0x3d, 0xe0, 0x20, 0x02, 0x3e, 0x02, 0xab, 0x07, 0xbe,
  0x8f, 0x14, 0x8a, 0xbd, 0x8c, 0x5e, 0xb9, 0xbe, 0xea, 0x76, 0x80, 0x3d,
  0x26, 0x0a, 0x27, 0xbf, 0x6e, 0x1d, 0x52, 0x3e, 0xa5, 0xcb, 0xa1, 0x3e,
  0x1b, 0x70, 0xf7, 0xbc, 0x31, 0x0a, 0x96, 0xbe, 0xc1, 0x6e, 0xd1, 0xbd,
  0x89, 0x5b, 0x00, 0xbf, 0x5f, 0x4d, 0xcc, 0x3d, 0x0d, 0x52, 0x49, 0x3d,
  0x9a, 0x96, 0xd2, 0xbe, 0x81, 0x42, 0xb6, 0x3d, 0x8f, 0x26, 0x50, 0xbe,
  0xd8, 0x81, 0x07, 0xbe, 0x74, 0x2f, 0xf6, 0xbe, 0x2e, 0x53, 0x2c, 0xbf,
  0x29, 0x2e, 0xd6, 0x3c, 0x14, 0x06, 0xd7, 0xbd, 0x48, 0x61, 0x78, 0xbd,
  0xa8, 0xa2, 0x7c, 0xbe, 0x74, 0x77, 0xc2, 0x3d, 0x23, 0x68, 0x5c, 0x3d,
  0x83, 0x98, 0x99, 0xbd, 0x27, 0x3d, 0xa8, 0xbe, 0x20, 0x5a, 0x9c, 0xbd,
  0xc8, 0xbb, 0x67, 0x3e, 0xeb, 0x02, 0xc1, 0xbe, 0x05, 0x9d, 0x7d, 0x3d,
  0x35, 0x89, 0xc3, 0xbd, 0x8c, 0xfe, 0x8f, 0x3e, 0xe9, 0x9f, 0xfc, 0xbe,
  0xe6, 0xdb, 0xbd, 0xbc, 0x11, 0xb3, 0x91, 0xbe, 0x83, 0xdb, 0x9d, 0xbe,
  0x8f, 0xbb, 0x94, 0xbe, 0x80, 0xdf, 0xf2, 0x3c, 0xa5, 0x48, 0x16, 0xbc,
  0xa0, 0xa2, 0xd9, 0xbe, 0x48, 0xbe, 0x55, 0xbd, 0x5d, 0xf6, 0x3f, 0xbf,
  0x16, 0x3d, 0xcd, 0x3c, 0x78, 0x0d, 0xa9, 0xbe, 0x79, 0xce, 0x81, 0xbe,
  0xc2, 0x42, 0x0f, 0xbf, 0x20, 0x69, 0x75, 0xbe, 0xcd, 0x2d, 0x06, 0xbf,
  0xda, 0xad, 0x39, 0xbd, 0x0d, 0xac, 0xcc, 0x3d, 0x67, 0xdb, 0xa1, 0xbe,
  0xe3, 0x88, 0xad, 0xbe, 0xb9, 0x48, 0x62, 0xbe, 0x9b, 0xaa, 0x7b, 0xbe,
  0x89, 0x65, 0x37, 0xbe, 0x0e, 0xa6, 0x8b, 0xbe, 0x12, 0x25, 0xbc, 0xbd,
  0x6f, 0x19, 0xd4, 0xbe, 0x9d, 0x5c, 0x81, 0x3e, 0xbc, 0x2f, 0x16, 0xbe,
  0xcb, 0xef, 0x05, 0xbf, 0x14, 0x2e, 0x09, 0xbf, 0x77, 0x20, 0x21, 0xbe,
  0x37, 0xe8, 0x3d, 0xbf, 0x48, 0xa0, 0xa2, 0x3b, 0xb9, 0x03, 0xaa, 0xbd,
  0xe6, 0x33, 0xb5, 0xbe, 0x93, 0x83, 0xbb, 0xbe, 0x20, 0x47, 0x91, 0xbe,
  0x96, 0xdf, 0x4e, 0xbe, 0xbc, 0x69, 0x58, 0xbd, 0x7e, 0xbe, 0xde, 0xbe,
  0xda, 0x09, 0xa6, 0xbe, 0x11, 0x80, 0x1d, 0xbe, 0x26, 0x7e, 0x0a, 0x3c,
  0x55, 0x20, 0xae, 0xbe, 0x1b, 0x2a, 0xc3, 0xbd, 0x63, 0x67, 0x16, 0xbf,
  0xec, 0xa5, 0x82, 0x3d, 0x8c, 0xcd, 0x50, 0xbf, 0xbb, 0x9b, 0x2d, 0xbe,
  0xce, 0xf7, 0x51, 0xbe, 0x96, 0x51, 0x96, 0xbe, 0x5a, 0x55, 0xd5, 0x3d,
  0x3a, 0x95, 0xd3, 0xbd, 0xd0, 0x3c, 0x6c, 0x3d, 0xc1, 0x36, 0x06, 0xbe,
  0xd2, 0x9b, 0x9d, 0xbe, 0x61, 0x53, 0x86, 0x3d, 0x84, 0xa8, 0x1c, 0x3e,
  0xe4, 0x36, 0xb4, 0xba, 0xa9, 0xa3, 0x58, 0xbe, 0xd3, 0xca, 0x35, 0x3e,
  0xba, 0x1c, 0x07, 0xbf, 0x98, 0x19, 0xcf, 0x3c, 0x7a, 0xe2, 0x4b, 0xbf,
  0x92, 0x5a, 0xa7, 0x3e, 0xa4, 0x40, 0xac, 0x3e, 0xaf, 0xaf, 0x40, 0xbe,
  0x78, 0x7a, 0x00, 0x3e, 0x4b, 0xe3, 0x9c, 0xbd, 0xb0, 0x99, 0x8d, 0x3d,
  0xc2, 0x9d, 0xf9, 0x3d, 0xaf, 0x3c, 0xa3, 0xbd, 0x5f, 0x75, 0xb3, 0x3d,
  0x23, 0x25, 0x38, 0x3d, 0x63, 0x60, 0xa6, 0xbd, 0xfe, 0xaa, 0xac, 0xbe,
  0x46, 0xdf, 0x7b, 0x3e, 0xa4, 0xaf, 0x21, 0xbe, 0xdc, 0x68, 0x17, 0x3f,
  0x37, 0xc3, 0x58, 0xbf, 0x96, 0xec, 0x6f, 0x3e, 0x08, 0x77, 0x83, 0x3e,
  0x75, 0xac, 0xab, 0xbd, 0x6d, 0x59, 0xcd, 0x3d, 0xe5, 0xdf, 0x85, 0x3e,
  0x7d, 0xab, 0x93, 0xbd, 0x8f, 0x52, 0x83, 0x3d, 0x5c, 0x21, 0xdf, 0xbd,
  0x20, 0xb3, 0x1d, 0x3e, 0xdc, 0x66, 0x53, 0x3e, 0xad, 0xc6, 0x90, 0xbe,
  0x14, 0xe7, 0x6a, 0xbe, 0x11, 0x3c, 0x42, 0x3d, 0x0d, 0x64, 0xb0, 0xbd,
  0x3c, 0x39, 0x04, 0x3e, 0x4e, 0x5e, 0x7f, 0xbe, 0x2f, 0xda, 0x96, 0x3d,
  0x5a, 0x04, 0x65, 0x3e, 0x48, 0x23, 0x72, 0xbd, 0x63, 0x18, 0x3e, 0xbd,
  0xd4, 0x55, 0x63, 0x3b, 0xd8, 0xd7, 0xde, 0x3d, 0x3f, 0x40, 0xd8, 0x3d,
  0x34, 0xcb, 0x71, 0xbe, 0x61, 0xaf, 0xa3, 0xbd, 0xb8, 0xe0, 0xb9, 0xbc,
  0xd9, 0x15, 0x0f, 0xbe, 0x65, 0x3a, 0xce, 0xbe, 0x39, 0x42, 0xd5, 0x3d,
  0x5e, 0x46, 0x0e, 0xbe, 0x95, 0x3e, 0x85, 0x3e, 0x28, 0xc3, 0xb5, 0x3c,
  0xa5, 0x07, 0xc9, 0x3e, 0xe4, 0xf6, 0xed, 0x3e, 0x1b, 0x8e, 0x55, 0xbe,
  0xe2, 0xc9, 0xc6, 0x3b, 0x11, 0xec, 0x8f, 0x3d, 0xad, 0xde, 0xb2, 0xbd,
  0x00, 0x74, 0x7d, 0xbd, 0xed, 0x39, 0x69, 0xbe, 0x4f, 0x9e, 0x30, 0xbd,
  0x75, 0x1c, 0xc4, 0xbd, 0x60, 0xa4, 0x2b, 0xbe, 0x73, 0x8f, 0x07, 0xbe,
  0x0f, 0xb7, 0xdb, 0x3d, 0xac, 0x50, 0x6c, 0xbe, 0xb8, 0x18, 0x5b, 0x3e,
  0x42, 0xaa, 0x97, 0xbe, 0x27, 0x7e, 0x23, 0x3e, 0x17, 0xe1, 0x49, 0x3e,
  0xff, 0x1e, 0x47, 0xbe, 0x33, 0x43, 0x47, 0xbe, 0x16, 0x91, 0x2a, 0xbe,
  0xe3, 0x28, 0x82, 0x3e, 0x0f, 0x3d, 0xdf, 0x3d, 0x32, 0xdd, 0x73, 0xbe,
  0x2a, 0x4f, 0x8e, 0x3e, 0x46, 0xbd, 0x75, 0xbd, 0xcc, 0xd7, 0x01, 0xbe,
  0xdf, 0x10, 0x8f, 0x3d, 0x20, 0xd2, 0x63, 0xbd, 0xfd, 0x75, 0xc1, 0xbe,
  0xac, 0x8a, 0x7a, 0x3e, 0xd4, 0x6a, 0x9e, 0xbe, 0x6d, 0x92, 0x35, 0x3e,
  0x09, 0xcb, 0xc5, 0xbd, 0x2b, 0x02, 0xb3, 0xbe, 0x0b, 0xfc, 0xbc, 0x3e,
  0x6f, 0x8c, 0xc1, 0x3d, 0x81, 0x86, 0xee, 0xbd, 0x93, 0xe4, 0x13, 0xbc,
  0x39, 0x7b, 0x80, 0xbe, 0x2d, 0xa8, 0x4f, 0x3e, 0x32, 0x30, 0xc5, 0xbc,
  0xef, 0xd5, 0xaf, 0xbd, 0x2a, 0x7d, 0x1e, 0x3e, 0xb6, 0x08, 0x7d, 0xbe,
  0x6f, 0x2e, 0x97, 0xbe, 0xc3, 0x0d, 0x99, 0x3e, 0x70, 0x34, 0xc1, 0xbd,
  0xcc, 0x47, 0x16, 0xbe, 0x64, 0x96, 0x6b, 0xbb, 0x48, 0x92, 0x49, 0xbe,
  0x18, 0xb7, 0xf8, 0xbd, 0xc7, 0x87, 0x1e, 0xbe, 0xfc, 0x9d, 0x41, 0xbe,
  0xda, 0x55, 0x17, 0x3e, 0x99, 0xd7, 0x76, 0xbe, 0x0b, 0xf3, 0xe3, 0x3d,
  0x72, 0xa4, 0x46, 0x3e, 0x59, 0x32, 0x25, 0xbe, 0x90, 0x8b, 0x51, 0x3d,
  0xeb, 0x9c, 0x7b, 0x3e, 0x11, 0x80, 0x54, 0xbe, 0x55, 0x5a, 0xb8, 0xbd,
  0xa4, 0x5e, 0x96, 0xbe, 0xb0, 0x3e, 0x0e, 0x3e, 0xbb, 0x31, 0x05, 0x3f,
  0x80, 0xeb, 0xe1, 0xbd, 0xcb, 0x3f, 0x9a, 0x3d, 0x03, 0x2b, 0x12, 0x3d,
  0x87, 0x39, 0x0d, 0x3e, 0x94, 0x5e, 0xf4, 0x3d, 0x6b, 0x8b, 0x29, 0xbe,
  0x95, 0xd6, 0x6a, 0x3e, 0xe8, 0xec, 0x38, 0x3e, 0xd4, 0x95, 0x8f, 0xbc,
  0x94, 0x20, 0x47, 0xbe, 0x1d, 0x7e, 0x98, 0x3e, 0x00, 0x39, 0xa7, 0xbd,
  0x37, 0xd8, 0x99, 0x3e, 0x57, 0x61, 0xbd, 0xbd, 0xe5, 0xa2, 0x35, 0x3e,
  0x71, 0xaf, 0x69, 0x3e, 0x5c, 0x58, 0x11, 0xbd, 0xa9, 0xdc, 0x25, 0x3d,
  0x16, 0x6d, 0x61, 0x3e, 0x3b, 0x8b, 0x79, 0xbc, 0xf3, 0xde, 0xc5, 0xbd,
  0x25, 0x34, 0x3d, 0xbe, 0xd7, 0x34, 0x17, 0x3e, 0x7b, 0x57, 0xb2, 0xbd,
  0xc4, 0xa8, 0x84, 0xbe, 0xcf, 0xb3, 0x03, 0x3e, 0x7d, 0xd9, 0x99, 0x3d,
  0x2a, 0x0d, 0x2a, 0xbe, 0x01, 0xca, 0x4f, 0x3e, 0x16, 0x3e, 0x10, 0xbe,
  0x15, 0x19, 0x0f, 0xbd, 0xe9, 0xb2, 0xb8, 0x3d, 0xab, 0x3e, 0x23, 0xbe,
  0x24, 0x7f, 0x52, 0x3c, 0x39, 0xef, 0x45, 0xbe, 0x75, 0x30, 0x81, 0x3d,
  0xd7, 0xd0, 0x0d, 0x3e, 0x88, 0x00, 0x02, 0xbe, 0x0d, 0xe7, 0x3f, 0x3e,
  0xda, 0x41, 0xb9, 0x3c, 0xae, 0x05, 0x92, 0xbe, 0x1d, 0x6a, 0xe7, 0xbc,
  0xfd, 0x30, 0x38, 0x3e, 0x13, 0xd3, 0x70, 0xbe, 0xd5, 0xdd, 0xb6, 0xbc,
  0xf8, 0xa8, 0x10, 0xbe, 0xe7, 0xee, 0xee, 0xbc, 0x0f, 0x05, 0xd3, 0x3c,
  0xd1, 0x94, 0x9b, 0xbd, 0x1a, 0xbb, 0xa8, 0xbd, 0x86, 0xce, 0xdf, 0x3d,
  0x44, 0x34, 0x32, 0x3d, 0xa7, 0xb1, 0x44, 0xbe, 0xb7, 0xe0, 0x39, 0xbe,
  0x3e, 0x36, 0xc6, 0x3c, 0x44, 0x79, 0x85, 0xbe, 0x2a, 0x2b, 0x38, 0xbe,
  0x12, 0xdf, 0xbf, 0x3d, 0x66, 0x29, 0x88, 0xbe, 0x46, 0xdb, 0x7a, 0xbd,
  0x21, 0xb3, 0x3f, 0x3d, 0x6f, 0xc9, 0xeb, 0xbd, 0xfd, 0x38, 0x55, 0xbe,
  0xe5, 0xc3, 0x2e, 0x3e, 0x7a, 0xd3, 0x20, 0xbe, 0x02, 0x7d, 0x52, 0xbd,
  0xad, 0x43, 0xe7, 0x3c, 0xa7, 0x6d, 0xde, 0xbd, 0x3c, 0x4f, 0x05, 0xbe,
  0xbe, 0x84, 0x8d, 0xbd, 0x82, 0x92, 0xb8, 0x3d, 0x8a, 0xf5, 0xe0, 0x3d,
  0x4d, 0x16, 0x0f, 0xbd, 0xf3, 0xcf, 0x5e, 0xbe, 0xe5, 0x04, 0x09, 0xbe,
  0x0a, 0x9a, 0x96, 0xbc, 0xbe, 0x17, 0x80, 0xbe, 0xa3, 0x6d, 0x38, 0x3c,
  0x4f, 0x8e, 0x55, 0xbc, 0x8d, 0x0c, 0xa4, 0xbd, 0x9a, 0xde, 0x1d, 0xbe,
  0x9c, 0x0b, 0x54, 0xbd, 0xfd, 0x6a, 0x03, 0xbe, 0xd6, 0x6c, 0x12, 0x3d,
  0x63, 0x6a, 0xf8, 0xbd, 0x6a, 0xad, 0x3f, 0xbd, 0xd1, 0xb8, 0x43, 0x3d,
  0xba, 0x86, 0x5b, 0xbd, 0xa8, 0xdc, 0x89, 0xbe, 0x7d, 0x15, 0x02, 0x3e,
  0x23, 0x95, 0x5c, 0xbe, 0x55, 0x77, 0xb0, 0xbe, 0xcb, 0x3c, 0xb7, 0x3d,
  0xa3, 0x0c, 0x53, 0xbe, 0xde, 0xe3, 0x17, 0x3d, 0xfa, 0x6a, 0xc7, 0xbd,
  0xa5, 0x63, 0xf9, 0xbd, 0x4c, 0x71, 0x8a, 0x3b, 0x2b, 0xae, 0x24, 0x3e,
  0xb6, 0x8f, 0x11, 0xbd, 0xdf, 0x49, 0x87, 0xbe, 0x16, 0x4d, 0x88, 0x3d,
  0x16, 0x94, 0x00, 0x3e, 0x84, 0xcb, 0x3b, 0x3c, 0x28, 0x9b, 0x8b, 0xbe,
  0x10, 0x1c, 0x29, 0xbe, 0x85, 0xdd, 0x18, 0xbe, 0x6d, 0xba, 0xab, 0xbc,
  0x64, 0x90, 0x70, 0x3d, 0x74, 0x0a, 0x43, 0xbe, 0x80, 0x44, 0x04, 0xbe,
  0xc6, 0xf5, 0x39, 0x3e, 0x40, 0x81, 0x9d, 0xbe, 0x28, 0xd1, 0x98, 0x3d,
  0xee, 0xce, 0x43, 0xbd, 0x24, 0x5b, 0x9a, 0xbe, 0xe9, 0x71, 0x31, 0xbd,
  0x9c, 0x49, 0xc8, 0x3d, 0xc1, 0x82, 0x5a, 0xbe, 0x21, 0x57, 0x16, 0xbe,
  0x87, 0xf5, 0x95, 0xbe, 0xe8, 0x5b, 0x01, 0x3c, 0xc9, 0x86, 0xcc, 0xbd,
  0x12, 0xc7, 0x6e, 0xbe, 0xfc, 0xb1, 0xe9, 0x3d, 0xba, 0x06, 0x14, 0x3d,
  0xd2, 0x04, 0xe9, 0x3d, 0x27, 0x26, 0x65, 0xbe, 0xe9, 0xa1, 0x0e, 0xbe,
  0x1f, 0x30, 0x75, 0xbe, 0xc5, 0x4e, 0x3c, 0x3e, 0x58, 0x9b, 0xa0, 0xbe,
  0xdd, 0x1e, 0xee, 0xbc, 0x1f, 0x70, 0x21, 0xbe, 0xb1, 0x1f, 0x52, 0xbe,
  0x6f, 0x50, 0x78, 0xbe, 0x56, 0x29, 0x4d, 0xbe, 0x8a, 0x47, 0x2c, 0x3d,
  0xac, 0xb1, 0xed, 0xbc, 0x10, 0x36, 0x9f, 0xbe, 0x7c, 0x17, 0x91, 0xbd,
  0x9c, 0xae, 0x43, 0x3d, 0xe2, 0xf5, 0xbd, 0x3d, 0x08, 0x87, 0x16, 0xbe,
  0xeb, 0x3d, 0x9c, 0xbe, 0x8f, 0x8a, 0x9d, 0x3d, 0x6f, 0xc6, 0x00, 0x3d,
  0x56, 0x35, 0x1d, 0xbe, 0x81, 0x30, 0x5a, 0xbc, 0x95, 0xdb, 0xb5, 0x3d,
  0x05, 0xe1, 0x10, 0xbe, 0x2d, 0x90, 0x1a, 0xbd, 0x90, 0x3c, 0xcd, 0x3c,
  0x86, 0xbb, 0x58, 0xbd, 0x7d, 0x43, 0x92, 0xbd, 0x7f, 0x7f, 0x20, 0xbe,
  0xfe, 0x57, 0x5d, 0xbe, 0x76, 0xae, 0x89, 0x3c, 0xac, 0xd7, 0x68, 0xbd,
  0xa9, 0xe9, 0x9c, 0x3d, 0x4c, 0x19, 0x8d, 0xbe, 0x50, 0x0b, 0x08, 0xbd,
  0x37, 0xa4, 0x68, 0xbe, 0x57, 0x15, 0xb1, 0xbe, 0xb1, 0xe5, 0x07, 0xbd,
  0xf6, 0xa1, 0x84, 0xbe, 0xf6, 0x42, 0xcd, 0xbd, 0xd8, 0xa7, 0x8f, 0xbe,
  0x98, 0xcd, 0x5e, 0xbd, 0xef, 0x5b, 0x18, 0x3e, 0xd7, 0x24, 0xcb, 0xbc,
  0xaf, 0x65, 0xb3, 0xbe, 0x28, 0x25, 0xdd, 0x3d, 0x35, 0xe4, 0x8e, 0xbd,
  0xc0, 0xd6, 0xf8, 0xbc, 0x1d, 0x13, 0x53, 0xbd, 0xca, 0x70, 0x74, 0xbe,
  0x5d, 0x31, 0x8e, 0xbe, 0x2a, 0x6f, 0x28, 0xbb, 0xce, 0x98, 0x52, 0xbd,
  0x04, 0x38, 0x8a, 0xbd, 0xf3, 0xd6, 0x11, 0xbe, 0x5f, 0xed, 0x30, 0xbd,
  0x9b, 0xbb, 0xfb, 0xbd, 0xbd, 0x1d, 0xd0, 0xbd, 0xe0, 0x2f, 0x62, 0xbe,
  0x6f, 0xa7, 0xdf, 0x3d, 0x44, 0x80, 0x71, 0xbe, 0xe0, 0x7e, 0xb3, 0xbc,
  0xd2, 0x92, 0x1c, 0xbe, 0x22, 0x45, 0xac, 0x3d, 0x09, 0x24, 0xc4, 0xbb,
  0x51, 0xfd, 0x5a, 0xbd, 0x94, 0x00, 0x79, 0xbe, 0x0e, 0xf9, 0xe9, 0x3d,
  0x76, 0x0e, 0x01, 0xbe, 0x79, 0xdd, 0x96, 0x3d, 0xe6, 0x61, 0x04, 0xbe,
  0xd0, 0xf6, 0x98, 0xbd, 0xba, 0xac, 0x25, 0xbd, 0xc0, 0xbc, 0xba, 0x3c,
  0x60, 0x6d, 0x37, 0xbe, 0x66, 0x27, 0x15, 0x3e, 0x4f, 0x25, 0x49, 0xbe,
  0xa7, 0xff, 0x3b, 0xbe, 0xd8, 0xb5, 0x2c, 0xbe, 0xaa, 0x20, 0x25, 0x3e,
  0xa8, 0x3e, 0x5b, 0xbd, 0x73, 0x82, 0x46, 0xbe, 0x4b, 0x79, 0x61, 0xbe,
  0x2c, 0xa3, 0x15, 0xbd, 0x0c, 0x92, 0x03, 0xbe, 0x8d, 0xd2, 0x85, 0xbe,
  0x45, 0x7a, 0x92, 0xbd, 0x32, 0x27, 0xb5, 0xbc, 0xa2, 0x2e, 0x49, 0xbe,
  0x6c, 0x3e, 0x66, 0x3d, 0x44, 0x16, 0xe4, 0x3d, 0xe5, 0x85, 0x01, 0x3e,
  0x69, 0x0e, 0x98, 0xbe, 0x83, 0x30, 0xce, 0x3d, 0xd5, 0x5f, 0xe5, 0xbd,
  0xaa, 0x97, 0x1b, 0x3e, 0xea, 0xee, 0x56, 0x3d, 0x57, 0xbb, 0xe3, 0xbd,
  0xf7, 0x17, 0x1e, 0xbe, 0x32, 0x7d, 0x46, 0x3c, 0xc3, 0x26, 0x1c, 0xbd,
  0xe4, 0x83, 0x9e, 0x3b, 0xe2, 0x03, 0x63, 0x39, 0x9a, 0xcc, 0x06, 0x3e,
  0x51, 0xcf, 0x82, 0xbe, 0x1f, 0xdd, 0xdb, 0xbc, 0x2d, 0x29, 0xcf, 0xbd,
  0xf1, 0x01, 0x36, 0xbe, 0xfb, 0x1b, 0x81, 0xbd, 0xaa, 0xe6, 0x0a, 0xbe,
  0xa1, 0x37, 0x98, 0xbd, 0x58, 0xd8, 0x0f, 0xbe, 0x7e, 0x42, 0xf7, 0x3d,
  0xd4, 0x44, 0xf9, 0xbd, 0x50, 0x91, 0x8b, 0xbd, 0x61, 0x16, 0xd0, 0xbd,
  0x3f, 0xe9, 0x71, 0xbc, 0x81, 0x38, 0xf3, 0xbd, 0xb3, 0x63, 0x82, 0x3d,
  0xd7, 0x64, 0x98, 0xbe, 0xfe, 0xf9, 0x49, 0x3d, 0xdb, 0x66, 0x2f, 0xbe,
  0x57, 0x99, 0xf4, 0xbd, 0x4c, 0x2e, 0x11, 0xbe, 0x28, 0x35, 0x7d, 0xbe,
  0x04, 0x57, 0x39, 0xbe, 0x40, 0xab, 0xea, 0x3d, 0xb4, 0x25, 0x6c, 0xbe,
  0x57, 0x9e, 0x1d, 0xbe, 0xc8, 0x8e, 0x92, 0xbe, 0x6c, 0x07, 0x1b, 0xbd,
  0xc0, 0x41, 0xa7, 0x3d, 0x1d, 0xaf, 0x95, 0xbd, 0x9f, 0x3b, 0x03, 0x3d,
  0xb9, 0xb2, 0xde, 0xbd, 0x63, 0x03, 0x04, 0xbe, 0x1e, 0x98, 0x6b, 0xbe,
  0x2e, 0x9c, 0x62, 0xbe, 0xf0, 0xd6, 0x7d, 0x3d, 0x23, 0xde, 0xbe, 0x3c,
  0x6e, 0x35, 0x77, 0xbd, 0xb0, 0x29, 0x61, 0xbe, 0xdd, 0xb0, 0x3f, 0xbe,
  0xd1, 0x5a, 0x31, 0x3e, 0x7a, 0xef, 0xa3, 0xbd, 0x0e, 0xa1, 0x66, 0xbe,
  0x82, 0xfd, 0x90, 0x3d, 0x22, 0x27, 0x0b, 0xbe, 0x3c, 0xce, 0x03, 0xbe,
  0x01, 0x5e, 0x2d, 0xbe, 0xc3, 0x57, 0x0c, 0xbe, 0x35, 0xfd, 0xa4, 0xbd,
  0xea, 0x63, 0x4d, 0xbe, 0x4d, 0xfe, 0x53, 0x3d, 0xf4, 0xbb, 0x2e, 0xbd,
  0x0c, 0xc5, 0x36, 0xbe, 0x34, 0xba, 0xcc, 0x3c, 0x6e, 0xd3, 0x94, 0xbd,
  0x4d, 0xb2, 0x04, 0x3e, 0xbb, 0x0a, 0x36, 0x3e, 0x8d, 0x7e, 0x98, 0xbd,
  0x70, 0x78, 0x0f, 0xbc, 0xb0, 0x70, 0x09, 0xbd, 0x5b, 0x1d, 0x20, 0xbe,
  0x01, 0x57, 0x52, 0xbe, 0x55, 0x39, 0xed, 0x3d, 0x23, 0x89, 0x46, 0xbe,
  0x87, 0xb5, 0xa9, 0xbd, 0x5c, 0x98, 0xb8, 0xbd, 0xb8, 0x35, 0xcc, 0xbd,
  0x6e, 0x6e, 0xae, 0xbd, 0x78, 0x16, 0x1d, 0x3e, 0x08, 0x64, 0x13, 0xbe,
  0xc3, 0x3e, 0x7e, 0xbd, 0x35, 0x88, 0x81, 0xbd, 0xca, 0x03, 0x73, 0xbd,
  0xc6, 0xa9, 0x71, 0x3b, 0x01, 0x48, 0x8f, 0xbd, 0xb6, 0x3f, 0x44, 0x3e,
  0xfa, 0x12, 0xa2, 0xbc, 0x29, 0x8b, 0xf3, 0xbd, 0x4c, 0xc2, 0x65, 0xbe,
  0xe9, 0xfb, 0x85, 0x3c, 0xdf, 0x13, 0xdf, 0xbd, 0xb6, 0xcd, 0xcc, 0xbd,
  0x2b, 0x70, 0xd4, 0x3d, 0x1d, 0x2a, 0x50, 0xbe, 0xdc, 0x1f, 0x14, 0xbc,
  0x9f, 0x4b, 0xf6, 0x38, 0x40, 0x5e, 0xdf, 0xbc, 0xc3, 0xd4, 0xf8, 0xbc,
  0xb6, 0xa5, 0x2a, 0x3d, 0xca, 0x26, 0xd0, 0xbd, 0xa0, 0x9e, 0x4d, 0xbe,
  0x41, 0xe0, 0x2b, 0x3e, 0xf0, 0xb1, 0xd4, 0x3c, 0xaa, 0x80, 0x9d, 0xbe,
  0x44, 0xc9, 0x2f, 0xbe, 0x49, 0xc4, 0x06, 0xbe, 0xd2, 0xc3, 0x23, 0xbe,
  0x91, 0x0c, 0x42, 0xbe, 0x7a, 0x3b, 0xbd, 0xbd, 0x48, 0x9d, 0xed, 0xbc,
  0x5c, 0xcc, 0x3f, 0x3e, 0xfc, 0x6f, 0xaa, 0xbd, 0x9b, 0xfd, 0xd6, 0xbd,
  0x85, 0x54, 0x38, 0x3d, 0xc3, 0xc5, 0x3a, 0x3c, 0xba, 0x5d, 0x53, 0x3e,
  0x63, 0xc0, 0x49, 0xbe, 0xab, 0x3e, 0x94, 0xbd, 0x9c, 0xc7, 0x25, 0xbe,
  0x15, 0x23, 0x9e, 0xbe, 0x20, 0xe0, 0xbb, 0xbd, 0x09, 0xed, 0x4d, 0xbd,
  0x74, 0x9d, 0x98, 0x3d, 0x74, 0xf9, 0x85, 0x3d, 0x08, 0x10, 0x70, 0x3d,
  0xc5, 0xa5, 0x0e, 0x3e, 0x20, 0xcd, 0x17, 0xbd, 0x6d, 0x20, 0x9f, 0xbd,
  0x58, 0xd6, 0xf1, 0x3d, 0xdd, 0x4e, 0xa9, 0xbc, 0x5b, 0x69, 0x58, 0xbe,
  0x12, 0x1c, 0xa5, 0xbd, 0xbe, 0xbe, 0x5a, 0xbe, 0x34, 0x79, 0x14, 0xbe,
  0xf4, 0x25, 0xba, 0xbd, 0x29, 0x77, 0x1a, 0xbe, 0xe8, 0xe0, 0xa2, 0xbd,
  0x5b, 0xac, 0x1e, 0xbe, 0x53, 0x70, 0xea, 0x3d, 0x06, 0x41, 0x55, 0xbd,
  0xe5, 0x95, 0x9b, 0x3d, 0x29, 0x98, 0x5a, 0xbd, 0x8e, 0xd3, 0x44, 0xbe,
  0x27, 0x0a, 0x4c, 0x3d, 0x80, 0x7f, 0x64, 0x3c, 0x65, 0x8d, 0xca, 0xbd,
  0x3b, 0xd6, 0x66, 0xbe, 0x87, 0x02, 0xfe, 0x3d, 0x84, 0x59, 0x06, 0xbe,
  0x2c, 0xfe, 0x5c, 0xbe, 0x30, 0xb1, 0x0a, 0x3e, 0xfe, 0xac, 0x50, 0xbe,
  0xd4, 0x6b, 0xa3, 0xbd, 0x63, 0x99, 0x85, 0xbd, 0x01, 0x04, 0x22, 0xbe,
  0x26, 0x4b, 0xbb, 0xbd, 0xf4, 0x59, 0x1a, 0xbe, 0xc7, 0xe1, 0x17, 0x3d,
  0xd6, 0x1d, 0x07, 0x3e, 0x4f, 0xa5, 0xf7, 0xbd, 0x86, 0xb0, 0xa9, 0x3d,
  0x59, 0xa1, 0xfb, 0xbd, 0x54, 0x16, 0xda, 0xbd, 0xb1, 0x60, 0x95, 0xbd,
  0x36, 0x53, 0xf3, 0xbc, 0xe4, 0x80, 0x05, 0x3e, 0xcc, 0xd7, 0xfb, 0x3c,
  0xef, 0xd5, 0x73, 0xbc, 0x35, 0xa8, 0xe1, 0xbc, 0xcc, 0xf3, 0x21, 0x3e,
  0x67, 0x3b, 0x04, 0x3e, 0x9a, 0xc3, 0x49, 0x3d, 0x43, 0xf8, 0x05, 0xbd,
  0xa0, 0xc3, 0x4a, 0xbe, 0x69, 0x2f, 0x6a, 0x3d, 0x61, 0x2f, 0x4c, 0xbc,
  0x29, 0xc4, 0x87, 0xbd, 0xd3, 0x9a, 0xf6, 0xbd, 0xd3, 0x88, 0x70, 0x3d,
  0x85, 0xb0, 0xc1, 0xbe, 0x6e, 0x6f, 0x2a, 0x3d, 0xa4, 0x2d, 0x2f, 0x3e,
  0xad, 0xc4, 0x48, 0x3e, 0x48, 0xe1, 0x11, 0xbf, 0xaa, 0x8d, 0x1d, 0xbd,
  0x83, 0x37, 0x9c, 0x3e, 0x03, 0x11, 0xe3, 0xbd, 0x7a, 0x9d, 0xbc, 0xbe,
  0xf2, 0xf9, 0x15, 0x3e, 0xca, 0x87, 0x2b, 0xbe, 0x75, 0xb9, 0xf3, 0xbb,
  0x9e, 0xa8, 0xf4, 0x3d, 0x22, 0x9f, 0x03, 0x3e, 0x6e, 0x0e, 0x4b, 0xbe,
  0x7f, 0xcf, 0x25, 0x3e, 0x05, 0x37, 0xf9, 0xbd, 0xec, 0xb8, 0x43, 0xbb,
  0xb4, 0xf6, 0xa9, 0xbd, 0x17, 0x30, 0xa3, 0x3d, 0x11, 0x7f, 0xeb, 0xbe,
  0xef, 0x89, 0x95, 0xbb, 0x9f, 0x99, 0x56, 0x3e, 0xd2, 0xf7, 0x72, 0xbd,
  0xba, 0x58, 0x8a, 0xbd, 0x32, 0x2e, 0xfd, 0xbc, 0x21, 0x06, 0x24, 0xbe,
  0x8e, 0x20, 0xb4, 0x3e, 0xce, 0xc8, 0xf1, 0x3c, 0x01, 0x93, 0x11, 0x3e,
  0xf0, 0xb5, 0xd4, 0x3d, 0x65, 0x6d, 0x75, 0x3d, 0x69, 0xf1, 0xb9, 0x3e,
  0xc8, 0xf7, 0xcf, 0x3b, 0xc6, 0x3c, 0x98, 0xbd, 0x92, 0x3f, 0x2b, 0xbd,
  0xdd, 0x50, 0x5c, 0xbe, 0x77, 0xbc, 0xbc, 0xbd, 0x73, 0x8d, 0x08, 0xbd,
  0xb1, 0x44, 0x69, 0xbd, 0xbf, 0xdc, 0x65, 0x3e, 0x2f, 0x32, 0x9a, 0xbd,
  0x9f, 0x13, 0x60, 0xbd, 0xb0, 0x52, 0x80, 0x3e, 0x81, 0xcb, 0x35, 0xbd,
  0x00, 0xa9, 0x30, 0xbe, 0xc1, 0x5e, 0x03, 0x3d, 0xdc, 0xb9, 0xcd, 0xbc,
  0x8d, 0x01, 0x8d, 0x3d, 0x85, 0x7b, 0xa5, 0x3c, 0xc2, 0xb8, 0x43, 0x3e,
  0x3e, 0xd1, 0x9a, 0x3c, 0x06, 0x7c, 0x6f, 0xbe, 0x25, 0x27, 0xbd, 0xbd,
  0x76, 0x27, 0x80, 0x3c, 0x99, 0x50, 0x65, 0x3e, 0xa1, 0x62, 0x4e, 0x3e,
  0x58, 0x86, 0xe0, 0xbd, 0x5d, 0x35, 0xba, 0xbd, 0xc4, 0x6c, 0x2c, 0xbd,
  0xc4, 0x4a, 0x2a, 0x3c, 0xa0, 0x24, 0x44, 0xbe, 0xed, 0xb6, 0x17, 0x3e,
  0xb9, 0x3e, 0x02, 0xbe, 0x7b, 0x46, 0x00, 0xbe, 0x35, 0xe2, 0x9c, 0xbb,
  0x5d, 0xa5, 0x2d, 0x3e, 0x3e, 0x86, 0x38, 0xbe, 0xab, 0x54, 0xc6, 0xbd,
  0x67, 0xbe, 0x00, 0xbe, 0x39, 0xaf, 0x81, 0x3e, 0xef, 0x59, 0xe4, 0x3c,
  0xba, 0xea, 0x0f, 0x3e, 0x9d, 0x67, 0x17, 0xbb, 0xa8, 0x02, 0x2b, 0xbd,
  0xf8, 0x20, 0x20, 0x3d, 0x3c, 0x65, 0x54, 0xbd, 0x28, 0xda, 0x9d, 0xbd,
  0xb1, 0x4f, 0x19, 0xbe, 0x3d, 0xd0, 0x29, 0xbd, 0x8c, 0xdd, 0x68, 0xbd,
  0x22, 0xd9, 0x9b, 0xbc, 0x41, 0xdc, 0x90, 0x3d, 0xc5, 0x5f, 0x95, 0x3d,
  0x5c, 0x13, 0x07, 0xbe, 0xf2, 0x76, 0x6e, 0xbd, 0x7d, 0x62, 0x19, 0x3e,
  0x55, 0x3a, 0xf8, 0x3c, 0xb5, 0xb5, 0xd9, 0x3d, 0x0a, 0x5c, 0x83, 0xbd,
  0x4e, 0x7d, 0x39, 0xbe, 0x99, 0xd4, 0x02, 0x3d, 0x07, 0x01, 0x7d, 0xbd,
  0x1f, 0x6f, 0x60, 0x3a, 0x05, 0x11, 0xe6, 0xbd, 0xa4, 0x78, 0x34, 0x3b,
  0x36, 0xbc, 0x24, 0xbe, 0x0a, 0xb7, 0x78, 0xbe, 0xb0, 0x38, 0xf8, 0xbd,
  0x66, 0x43, 0x84, 0xbd, 0xa2, 0x4d, 0x6e, 0xbe, 0x58, 0x3c, 0x12, 0xbe,
  0xd9, 0x1c, 0x35, 0xbd, 0xb9, 0x69, 0x0c, 0x3e, 0x01, 0x35, 0x15, 0xbe,
  0x8d, 0xbf, 0x98, 0x3d, 0x99, 0xc3, 0x66, 0xbd, 0x8b, 0xc8, 0x2f, 0xbe,
  0xfe, 0xcc, 0x3c, 0xbd, 0xd8, 0x4a, 0x5b, 0xbe, 0xf8, 0x45, 0x28, 0x3e,
  0x36, 0x3b, 0x00, 0xbe, 0xb4, 0xab, 0xc4, 0xbc, 0x13, 0x0c, 0xb4, 0xbe,
  0x9b, 0x28, 0xf8, 0x3d, 0xa8, 0xcb, 0xdd, 0x3d, 0x27, 0x66, 0x2a, 0x3d,
  0xe1, 0x48, 0x0f, 0x3e, 0x7c, 0x58, 0xaf, 0xbd, 0x4c, 0x24, 0xd8, 0x3d,
  0x52, 0x90, 0x95, 0xbd, 0x60, 0x97, 0xd6, 0xbd, 0x8d, 0xfc, 0x12, 0x3e,
  0x41, 0x02, 0x23, 0x3e, 0xe4, 0x21, 0xd5, 0x3d, 0xf1, 0xf2, 0x4c, 0x3e,
  0x50, 0xd0, 0x09, 0x3e, 0x22, 0xd3, 0xeb, 0x3d, 0x0e, 0x68, 0xcb, 0x3d,
  0xf8, 0x84, 0x43, 0xbe, 0x46, 0x23, 0x62, 0xbe, 0xa9, 0xaf, 0x08, 0xbe,
  0x7a, 0xb9, 0x60, 0xbe, 0x37, 0xfd, 0x20, 0x3d, 0xa1, 0xe6, 0x20, 0xbd,
  0x49, 0xfb, 0xb8, 0x3e, 0x49, 0xf1, 0xe5, 0xbd, 0x93, 0x18, 0x30, 0xbe,
  0x92, 0xd8, 0xf4, 0xbc, 0x20, 0x8b, 0x16, 0x3e, 0xe1, 0x3d, 0x1e, 0x3e,
  0xfb, 0x5b, 0xac, 0xba, 0x8c, 0x4a, 0x26, 0xbe, 0x8e, 0x80, 0x44, 0x3e,
  0x32, 0xf2, 0x55, 0x3c, 0xaa, 0xf2, 0x01, 0xbe, 0x79, 0x82, 0xcc, 0x3b,
  0x28, 0x05, 0x57, 0x3d, 0xb7, 0x06, 0xf2, 0xbb, 0xf1, 0x4c, 0x0c, 0x3d,
  0xd3, 0x71, 0x4e, 0xbe, 0x7e, 0x43, 0x2a, 0x3e, 0x67, 0xf7, 0xc5, 0x3d,
  0x0e, 0x51, 0x75, 0xbe, 0x61, 0xd8, 0x39, 0x3d, 0x24, 0xd2, 0xd9, 0x3d,
  0x25, 0xde, 0x34, 0xbe, 0x27, 0x1f, 0x23, 0xbd, 0x87, 0x94, 0x3c, 0x3d,
  0xfc, 0xad, 0xd4, 0xbd, 0x51, 0x86, 0x43, 0xbe, 0xe3, 0x06, 0xd6, 0xbe,
  0x03, 0xb6, 0x10, 0xbe, 0x63, 0x0d, 0x17, 0xbe, 0x22, 0x33, 0x8a, 0x3c,
  0x82, 0x92, 0x0d, 0xbe, 0x49, 0xdb, 0xcc, 0x3c, 0xa3, 0x17, 0xae, 0x3d,
  0x9e, 0x60, 0x86, 0xbe, 0x1a, 0xda, 0xd1, 0xbc, 0x74, 0x0b, 0x92, 0xbc,
  0x57, 0x65, 0x3c, 0x3e, 0x4a, 0x3f, 0xe9, 0xbd, 0x84, 0xe1, 0xe1, 0x3d,
  0xc5, 0x49, 0xbe, 0xbd, 0xff, 0x50, 0x00, 0xbe, 0x05, 0x32, 0x82, 0x3d,
  0x35, 0xfd, 0xbf, 0xbe, 0x7b, 0xec, 0x58, 0xbe, 0x57, 0xfc, 0xd3, 0x3d,
  0x21, 0x3b, 0x09, 0xbe, 0x01, 0xbb, 0x01, 0xbd, 0xe6, 0xfd, 0x48, 0xbd,
  0x8b, 0x23, 0x12, 0x3d, 0x12, 0x97, 0x7e, 0xbe, 0x85, 0xc2, 0x63, 0xbe,
  0x34, 0xf3, 0x89, 0x3e, 0x5a, 0x10, 0x8d, 0xbd, 0x72, 0xe1, 0x5b, 0xbe,
  0xf4, 0xd1, 0xeb, 0x3d, 0x96, 0xb2, 0x1f, 0xbe, 0xf7, 0xf7, 0xcc, 0xbb,
  0x08, 0xd0, 0xc2, 0x3c, 0x15, 0x11, 0x55, 0xbe, 0xe8, 0xb5, 0x76, 0xbe,
  0x05, 0x9d, 0x12, 0xbe, 0x6a, 0x53, 0x62, 0xbe, 0xc9, 0xda, 0x80, 0xbd,
  0x99, 0x43, 0x1e, 0xbd, 0xfc, 0xff, 0x62, 0x3e, 0x3e, 0x3f, 0xc8, 0xbd,
  0x3f, 0x00, 0x4d, 0xbe, 0xbc, 0xca, 0xb5, 0x3d, 0x54, 0x8b, 0x98, 0xbc,
  0x0c, 0x0f, 0xd4, 0xbd, 0x29, 0x99, 0x89, 0xbd, 0x14, 0xca, 0x2a, 0x3d,
  0xfa, 0x83, 0xa1, 0x3e, 0x8e, 0xd9, 0xb5, 0x3c, 0x02, 0x9b, 0x87, 0x3c,
  0xfd, 0xb3, 0x6f, 0x3d, 0xaf, 0xcc, 0xf5, 0x3d, 0xe6, 0xc4, 0x81, 0xbd,
  0x5b, 0xda, 0x9c, 0xbd, 0x3b, 0x47, 0x1f, 0xbe, 0x19, 0xd5, 0x49, 0xbb,
  0xf0, 0x2f, 0x96, 0x3c, 0x3b, 0xed, 0xc7, 0xbe, 0xb4, 0xac, 0x70, 0xbe,
  0x28, 0xe5, 0x55, 0x3e, 0xa9, 0xfc, 0xef, 0x3c, 0x75, 0x86, 0xc2, 0x3e,
  0xc6, 0xcd, 0x9b, 0xbd, 0x17, 0x1d, 0xb0, 0x3e, 0xd1, 0xdf, 0x19, 0x3f,
  0xb8, 0xe5, 0x96, 0xbd, 0x75, 0x88, 0x00, 0x3e, 0x49, 0x59, 0x87, 0xbe,
  0xda, 0xd6, 0xbb, 0x3d, 0x34, 0x2a, 0xb8, 0x3d, 0xdd, 0xdf, 0xa7, 0xbe,
  0xdd, 0xef, 0x7d, 0x3e, 0xe7, 0xd6, 0x84, 0x3e, 0x5c, 0xbb, 0x84, 0xbe,
  0xb5, 0x20, 0xab, 0x3c, 0x07, 0x3d, 0xbe, 0x3e, 0xb6, 0x48, 0xef, 0xbd,
  0x5f, 0xee, 0xa7, 0xbd, 0x2b, 0xdd, 0x23, 0xbf, 0x72, 0x0d, 0xa1, 0xbc,
  0xd2, 0xe6, 0x3e, 0x3f, 0xaa, 0xe9, 0x2c, 0xbe, 0x8c, 0x8f, 0xd3, 0x3e,
  0x46, 0xd2, 0xda, 0xbd, 0x1f, 0x73, 0x0a, 0xbc, 0xb1, 0xae, 0x82, 0x3d,
  0x9a, 0x7b, 0xdd, 0xbe, 0x00, 0xf2, 0x00, 0x3f, 0x6b, 0x8b, 0x09, 0xbe,
  0xfa, 0x5c, 0x49, 0xbe, 0x6d, 0x21, 0xe5, 0x3d, 0x68, 0x3f, 0xc9, 0xbd,
  0xfa, 0x72, 0x4f, 0x3d, 0xb4, 0x13, 0x57, 0x3d, 0x84, 0x59, 0x83, 0xbe,
  0x6f, 0xba, 0xd7, 0xbe, 0xb2, 0x79, 0xf7, 0x3c, 0xe2, 0xdc, 0xc7, 0xbd,
  0xf4, 0x09, 0x95, 0x3e, 0x67, 0x6b, 0x9c, 0x3d, 0x71, 0x99, 0x68, 0xbe,
  0xe9, 0xde, 0x84, 0xbb, 0xeb, 0xf4, 0x35, 0xbe, 0x47, 0xfe, 0x36, 0x3e,
  0xe4, 0x80, 0xbf, 0x3d, 0x67, 0x84, 0xbe, 0xbd, 0xb1, 0xa4, 0xab, 0x3d,
  0x89, 0x80, 0x84, 0xbd, 0x1a, 0x41, 0xb2, 0x3d, 0xf7, 0x4b, 0x1f, 0xbe,
  0xe1, 0x1a, 0x29, 0xbf, 0x5d, 0x34, 0xca, 0xbd, 0x1d, 0x23, 0xea, 0x3e,
  0xfd, 0xf7, 0xbe, 0xbd, 0xfc, 0x49, 0x24, 0x3e, 0x1f, 0xe1, 0xdc, 0xbc,
  0xe5, 0x90, 0x6e, 0xbd, 0x0c, 0xae, 0x22, 0x3d, 0xb8, 0x18, 0xa3, 0xbe,
  0xf7, 0xdb, 0x54, 0xbd, 0x56, 0x05, 0x2f, 0x3e, 0x49, 0xda, 0x55, 0xbd,
  0x0a, 0xb5, 0x9a, 0x3c, 0x65, 0x04, 0xf7, 0x3d, 0xd3, 0x7e, 0xb6, 0x3d,
  0x79, 0x8d, 0x9b, 0x3e, 0xbb, 0xf4, 0x33, 0xbf, 0xfc, 0x1e, 0xf8, 0x3d,
  0x9e, 0xab, 0x3d, 0x3e, 0xbc, 0xf3, 0xc3, 0xbd, 0x8b, 0xdc, 0x90, 0xbc,
  0x89, 0x93, 0xf1, 0xbc, 0xd8, 0xec, 0x72, 0xbe, 0x10, 0xc5, 0x88, 0x3d,
  0xde, 0xd8, 0x89, 0xbe, 0x9d, 0xfa, 0x40, 0x3e, 0xeb, 0xba, 0x8a, 0x3d,
  0x8b, 0x52, 0x80, 0xbe, 0xcf, 0xf9, 0xfe, 0x3c, 0x4a, 0x87, 0x56, 0xbc,
  0xc4, 0x24, 0x17, 0xbc, 0x7c, 0x5c, 0x73, 0x3e, 0x03, 0x38, 0xfa, 0xbe,
  0xff, 0x69, 0x8d, 0x3e, 0xb1, 0x5f, 0xec, 0x3d, 0xb0, 0xa6, 0x4d, 0xbd,
  0x0b, 0x52, 0x16, 0x3d, 0xb0, 0x7b, 0xa2, 0x3d, 0xf6, 0xba, 0x2d, 0xbb,
  0x0c, 0x71, 0xd7, 0x3d, 0xf8, 0x25, 0x1c, 0xbe, 0x7c, 0xf5, 0x95, 0x3b,
  0xf5, 0x77, 0xe0, 0xbd, 0x04, 0x96, 0x1b, 0xbe, 0x94, 0x51, 0x79, 0x3d,
  0x88, 0x34, 0xa1, 0x3e, 0x2c, 0x9e, 0x74, 0xbd, 0x66, 0x2b, 0x0e, 0x3e,
  0xa8, 0xe3, 0xa4, 0x3d, 0x4e, 0x43, 0xe8, 0x3c, 0x7f, 0xab, 0x42, 0xbe,
  0x45, 0xad, 0x79, 0xbe, 0xe1, 0xc0, 0x43, 0xbc, 0xeb, 0xda, 0x0f, 0x3e,
  0x8e, 0xd1, 0x90, 0xbe, 0x1a, 0xe0, 0xe6, 0xbd, 0xe8, 0x8e, 0xe9, 0xbc,
  0x7a, 0x34, 0xb4, 0x3d, 0xe2, 0xee, 0x18, 0xbe, 0xf4, 0x8b, 0xf0, 0xbd,
  0xdb, 0x1b, 0xed, 0x3d, 0x9b, 0x7e, 0xc2, 0x3d, 0xd1, 0x2d, 0x6e, 0xbe,
  0x1f, 0xf5, 0x6e, 0x3d, 0x79, 0x7b, 0xb1, 0xbd, 0xca, 0x16, 0x61, 0xbe,
  0x21, 0xad, 0x4d, 0xbe, 0x60, 0x6a, 0x4c, 0xbe, 0x1c, 0xc7, 0xf7, 0x3d,
  0xd0, 0x8b, 0x72, 0x3d, 0x5e, 0xc5, 0xd4, 0xbc, 0x41, 0x77, 0x66, 0xbe,
  0x2e, 0x84, 0x8a, 0xbe, 0xf1, 0xf8, 0x3b, 0x3e, 0xdf, 0x1e, 0x5a, 0x3d,
  0xaa, 0x87, 0xc8, 0xbd, 0xca, 0xf3, 0x40, 0xbd, 0xea, 0x51, 0xbc, 0x3d,
  0xd7, 0xad, 0x86, 0xbd, 0x9c, 0x6f, 0xa4, 0x3d, 0xbf, 0x3d, 0xbd, 0x3c,
  0x99, 0xb0, 0xce, 0x3d, 0xef, 0xd1, 0x28, 0xbe, 0xc9, 0xd0, 0xbf, 0xbd,
  0xcd, 0x62, 0x68, 0x3c, 0x58, 0x5d, 0xe1, 0x3d, 0xb4, 0xd1, 0x67, 0xbc,
  0x57, 0xb6, 0xc7, 0xbd, 0x42, 0xdb, 0xf8, 0xbc, 0x22, 0xcc, 0x82, 0x3d,
  0x8c, 0x37, 0x33, 0xbe, 0x9b, 0x3f, 0xa9, 0x3b, 0x58, 0xe1, 0xc2, 0x3d,
  0x3c, 0x4c, 0xe4, 0xbd, 0x8d, 0x58, 0x42, 0xbe, 0x9b, 0x27, 0xfc, 0xbd,
  0xbb, 0x4c, 0xf7, 0xbc, 0x69, 0x33, 0xce, 0xbc, 0x27, 0x7a, 0x64, 0x3d,
  0x5f, 0x77, 0x04, 0xbe, 0xeb, 0xe0, 0x54, 0xbe, 0x1a, 0x2c, 0x21, 0x3e,
  0x05, 0x42, 0x05, 0xbe, 0xba, 0xf9, 0x68, 0xbe, 0x05, 0xd8, 0x0d, 0xbe,
  0x03, 0x3a, 0x04, 0xbe, 0x56, 0xc6, 0xf7, 0x3c, 0x38, 0x84, 0xeb, 0x3d,
  0x99, 0x53, 0xd8, 0x3a, 0xcb, 0xdf, 0x2c, 0x3e, 0x46, 0x45, 0x9e, 0xbe,
  0xd2, 0x00, 0xd3, 0xbd, 0x7a, 0xe3, 0x72, 0x3b, 0x7e, 0xe7, 0x5c, 0xbe,
  0x31, 0xf8, 0x1d, 0xbd, 0x3f, 0xad, 0xc2, 0xbe, 0xa5, 0x5f, 0xf4, 0xbd,
  0xac, 0xb5, 0x0a, 0x3d, 0x10, 0xcd, 0x78, 0xbe, 0xe6, 0xf4, 0x6b, 0xbd,
  0x62, 0xdf, 0x92, 0x3a, 0x41, 0x4e, 0x2c, 0x3e, 0x3a, 0x8a, 0xa4, 0x3a,
  0x99, 0xc0, 0xbe, 0xbd, 0x67, 0x03, 0xb9, 0xbd, 0xd3, 0xdc, 0xf0, 0xbd,
  0x68, 0x90, 0x19, 0xbe, 0x85, 0x46, 0x5c, 0xbd, 0xe8, 0x68, 0x02, 0xbd,
  0xc2, 0x0c, 0x34, 0x3b, 0xb0, 0xb2, 0x1b, 0x3e, 0x62, 0xe7, 0x42, 0xbe,
  0x9b, 0x34, 0xa1, 0x3d, 0x53, 0x00, 0x8f, 0x3d, 0x24, 0x50, 0x72, 0xbe,
  0x99, 0xd2, 0xf5, 0x3d, 0xd1, 0x18, 0x11, 0xbe, 0xa7, 0x14, 0x04, 0xbd,
  0x51, 0xe2, 0x11, 0xbe, 0x54, 0x58, 0x18, 0xbe, 0x20, 0x65, 0x75, 0x3d,
  0x7f, 0xc7, 0x26, 0xbe, 0x06, 0xa8, 0x00, 0xbe, 0x0c, 0xcc, 0x32, 0x3e,
  0xf6, 0x2e, 0xb1, 0x3d, 0x4f, 0x62, 0x1e, 0xbe, 0xb8, 0xa6, 0x1e, 0x3d,
  0x1c, 0x64, 0x4a, 0xbe, 0x3c, 0xa7, 0x7c, 0xbe, 0x62, 0x08, 0x58, 0xbd,
  0x88, 0x9e, 0x57, 0x3d, 0x25, 0xdb, 0xc2, 0xbd, 0x45, 0xb5, 0xae, 0xbd,
  0xbf, 0x7c, 0x12, 0x3d, 0xf5, 0x22, 0xc2, 0x3d, 0x9a, 0x4f, 0x23, 0xbe,
  0xb6, 0x5c, 0x4e, 0xbd, 0xf2, 0x9d, 0xbc, 0xbd, 0x6c, 0x72, 0x05, 0xbe,
  0xd0, 0x4f, 0xfa, 0xbd, 0x5c, 0xd3, 0xb0, 0xbd, 0xa8, 0x04, 0xa7, 0x3d,
  0x5d, 0xd2, 0x1d, 0xbe, 0x8e, 0xea, 0x62, 0xbe, 0x83, 0xea, 0x9e, 0xbc,
  0x86, 0x7b, 0xc2, 0x3d, 0x7a, 0x00, 0x2a, 0x3b, 0xbd, 0xe3, 0x95, 0x3c,
  0xe5, 0xda, 0x30, 0xbe, 0xc9, 0xa7, 0x60, 0xbd, 0xa7, 0xe4, 0x40, 0x3d,
  0x49, 0xe0, 0x83, 0xbe, 0xcb, 0x5f, 0x61, 0x3d, 0xac, 0x14, 0x6c, 0xbe,
  0xcf, 0x8e, 0x2c, 0xbe, 0x5c, 0x20, 0x03, 0xbe, 0x73, 0x49, 0xbd, 0xbd,
  0xf7, 0x1a, 0x63, 0xbe, 0x12, 0x00, 0x44, 0xbd, 0xd9, 0xfe, 0xbc, 0xbd,
  0xfa, 0x8c, 0xa7, 0x3d, 0x0f, 0x8b, 0x35, 0xbe, 0x18, 0x2b, 0xbe, 0x3c,
  0x34, 0x90, 0xf4, 0xbd, 0x28, 0xa4, 0x83, 0xbd, 0x40, 0x9c, 0xfb, 0xbb,
  0x81, 0xdb, 0x6a, 0xbe, 0x61, 0xfe, 0x31, 0x3b, 0x03, 0x9c, 0x36, 0x3d,
  0xd6, 0x23, 0x5a, 0xbe, 0xe1, 0x12, 0x8d, 0xbe, 0xd0, 0xdc, 0xa9, 0xbd,
  0x59, 0xed, 0x48, 0xbe, 0x8b, 0xd9, 0xb2, 0x3d, 0x64, 0x9f, 0x16, 0x3e,
  0x4a, 0x06, 0xf9, 0xbd, 0x3b, 0x86, 0x89, 0xbe, 0xcc, 0x38, 0x6b, 0x3d,
  0xca, 0x8d, 0x93, 0xbe, 0x99, 0xab, 0x2c, 0xbe, 0xcb, 0xe3, 0x5f, 0xbe,
  0xa9, 0x12, 0x95, 0x3d, 0xa1, 0x2a, 0x65, 0xbd, 0x95, 0x71, 0xcf, 0x3b,
  0x79, 0x59, 0xb8, 0x3d, 0xe4, 0x4c, 0x50, 0xbe, 0xbe, 0xcf, 0x8e, 0xbe,
  0x4b, 0xa0, 0x02, 0x3d, 0xd0, 0xa0, 0x34, 0xbe, 0x61, 0x77, 0xef, 0x3d,
  0x93, 0xe0, 0xf3, 0x3d, 0x5f, 0xcb, 0x7c, 0xbe, 0xcb, 0xb2, 0x5a, 0xbd,
  0xa8, 0x14, 0x3e, 0xbe, 0x37, 0xc0, 0x36, 0xbe, 0x2f, 0xc0, 0xdd, 0xbd,
  0x9a, 0x51, 0x12, 0x3d, 0xa9, 0x74, 0x4c, 0xbe, 0x1a, 0x40, 0x4e, 0x3d,
  0x24, 0xf0, 0x06, 0xbe, 0xe7, 0xfd, 0xb1, 0x3d, 0xe5, 0x06, 0x48, 0xbe,
  0x66, 0xe0, 0x8a, 0xbe, 0xaa, 0xc6, 0x2e, 0xbe, 0x70, 0x43, 0xf5, 0x3d,
  0xd7, 0x35, 0xb0, 0x3d, 0xf8, 0x24, 0x2b, 0xbe, 0x33, 0x1d, 0x1b, 0xbe,
  0x49, 0x99, 0x94, 0xbe, 0x5d, 0xa3, 0xaa, 0xbd, 0x3f, 0x1e, 0x5e, 0xbe,
  0x2a, 0x4a, 0x54, 0xbd, 0x15, 0x0e, 0x48, 0xbe, 0xda, 0xf8, 0x8d, 0x3d,
  0x49, 0xd1, 0x89, 0x3d, 0xbf, 0xfb, 0xea, 0xbd, 0xae, 0x06, 0x17, 0xbe,
  0x27, 0xf2, 0x61, 0xbd, 0x8f, 0xed, 0xa8, 0xbd, 0x13, 0x8f, 0xf8, 0x3d,
  0x47, 0xce, 0x33, 0x3d, 0x82, 0x74, 0x2d, 0xbe, 0x53, 0xf5, 0x2d, 0xbe,
  0x7a, 0x66, 0xcd, 0xbd, 0x86, 0x30, 0x2a, 0xbd, 0xa2, 0x55, 0x51, 0xbe,
  0x71, 0xa0, 0x1a, 0xbe, 0xa5, 0xed, 0x00, 0xbe, 0x14, 0x18, 0x26, 0xbe,
  0xf1, 0xc8, 0x33, 0xbe, 0xe6, 0x84, 0x3f, 0xbd, 0x57, 0x6a, 0x33, 0xbe,
  0x96, 0xb8, 0xe3, 0xbc, 0x69, 0xf1, 0x97, 0x3d, 0x0a, 0x1c, 0x81, 0xbe,
  0x79, 0xec, 0x05, 0x3e, 0xa0, 0x67, 0x21, 0xbe, 0xcb, 0xe7, 0xcb, 0x3c,
  0x1c, 0x93, 0x79, 0xbe, 0xfd, 0xb7, 0x1a, 0xbe, 0x8a, 0xe0, 0x5f, 0xbe,
  0xa2, 0xa0, 0x31, 0xbc, 0x27, 0x9a, 0x56, 0xbe, 0xb9, 0x2a, 0xa9, 0xbd,
  0x78, 0x9c, 0x32, 0xbd, 0x87, 0x74, 0xac, 0xbd, 0x7a, 0xb5, 0xc5, 0xbb,
  0x1f, 0x37, 0xbd, 0xbe, 0x83, 0x1c, 0xbe, 0xbd, 0xc0, 0x37, 0x51, 0x3d,
  0xfd, 0x02, 0xa0, 0xbd, 0xd8, 0x2c, 0xd5, 0xbd, 0x91, 0x1e, 0x66, 0xbe,
  0x42, 0x6f, 0x6f, 0x3c, 0x4f, 0xf6, 0xb7, 0x3b, 0xbe, 0x84, 0x87, 0xbe,
  0x1a, 0x0b, 0x4e, 0xbe, 0x44, 0xde, 0x0e, 0x3d, 0x7d, 0x04, 0x1e, 0xbe,
  0xb7, 0x46, 0x21, 0xbe, 0xdf, 0x0e, 0x8e, 0xbe, 0x56, 0x64, 0xbb, 0x3d,
  0xdf, 0x4d, 0x76, 0xbd, 0xaa, 0x3d, 0xc2, 0xbc, 0xb6, 0xa4, 0x0f, 0x3e,
  0x86, 0x82, 0x1e, 0xbe, 0x12, 0x28, 0x30, 0xbe, 0x0d, 0xa3, 0x87, 0x3d,
  0x66, 0x1b, 0xaf, 0xbc, 0x2f, 0x90, 0x6c, 0xbe, 0x6e, 0x03, 0xda, 0xbc,
  0xa1, 0x99, 0x20, 0xbe, 0x54, 0x63, 0x4a, 0xbe, 0xae, 0xd0, 0x5a, 0xbc,
  0xe2, 0xed, 0xed, 0xbd, 0x8d, 0xa1, 0x6b, 0xbe, 0xe6, 0x06, 0x0f, 0x3e,
  0xd7, 0x0a, 0x09, 0xbe, 0x69, 0x1d, 0x00, 0x3e, 0xce, 0x74, 0x38, 0x3c,
  0x10, 0x9d, 0x3b, 0x3d, 0x09, 0xf0, 0xff, 0x3a, 0xa0, 0xe4, 0xa2, 0xbe,
  0x66, 0x1b, 0x46, 0x3d, 0x68, 0x9a, 0x2a, 0xbd, 0x41, 0xaa, 0x19, 0x3d,
  0x30, 0x47, 0xaa, 0xbd, 0x27, 0xea, 0x83, 0xbe, 0x44, 0xbd, 0x9b, 0xbc,
  0x03, 0x98, 0xc2, 0xbd, 0x17, 0x4c, 0x79, 0xbd, 0xf8, 0xc7, 0x0e, 0xbd,
  0x8c, 0xc8, 0x09, 0xbc, 0xf6, 0x57, 0x03, 0x3e, 0x98, 0x12, 0x71, 0xbe,
  0x5b, 0x71, 0x8e, 0xbe, 0x7c, 0x82, 0x2f, 0x3d, 0x5e, 0x60, 0x34, 0x3e,
  0x58, 0xa3, 0x46, 0x3b, 0xa4, 0x8c, 0x2b, 0xbe, 0x47, 0x36, 0x05, 0xbe,
  0x94, 0xc9, 0x8d, 0xbc, 0x36, 0x44, 0x31, 0xbe, 0xe3, 0x2c, 0x3d, 0xbe,
  0x4c, 0xd8, 0xc0, 0x3c, 0x10, 0xcd, 0x07, 0x3e, 0x46, 0xe5, 0x7a, 0xbe,
  0x27, 0x72, 0x0a, 0x3e, 0x6c, 0x45, 0xf5, 0x3c, 0x23, 0x5b, 0xa1, 0x3d,
  0x85, 0x7f, 0x1d, 0xbe, 0xec, 0x24, 0x03, 0xbe, 0xad, 0x2b, 0x33, 0xbe,
  0x16, 0x21, 0x64, 0xbe, 0xad, 0x51, 0xaa, 0xbd, 0x86, 0x95, 0xcc, 0x3d,
  0xa6, 0x52, 0x13, 0x3a, 0x6d, 0x00, 0xdc, 0x3d, 0xb4, 0x31, 0x05, 0x3e,
  0xeb, 0x41, 0x00, 0xbe, 0x84, 0xc7, 0x62, 0xbe, 0x03, 0x44, 0x7c, 0x3d,
  0xfe, 0xdf, 0x91, 0x3d, 0x33, 0xf4, 0x23, 0xbe, 0x90, 0xd8, 0x43, 0xbe,
  0xfb, 0x84, 0x62, 0x3d, 0x55, 0x6d, 0x70, 0xbc, 0x2d, 0x09, 0x1c, 0xbe,
  0x58, 0x6a, 0x8c, 0xbc, 0xcb, 0xff, 0xc3, 0xbd, 0x1b, 0xcf, 0xa6, 0xbe,
  0xf0, 0x38, 0xea, 0xbd, 0xf1, 0x94, 0xec, 0xbd, 0x4a, 0x9b, 0xc7, 0x3d,
  0x21, 0x85, 0x02, 0xbe, 0xf5, 0x0f, 0x97, 0xbe, 0x48, 0x12, 0x27, 0xbe,
  0x52, 0x27, 0x1d, 0x3e, 0x11, 0xe1, 0x92, 0x3b, 0xc0, 0xd8, 0xed, 0xbd,
  0x94, 0x9a, 0xee, 0xbb, 0x3c, 0xbc, 0x93, 0x3d, 0x3c, 0x7a, 0x15, 0xbe,
  0x91, 0xf5, 0x0a, 0xbd, 0xe8, 0x65, 0x0c, 0xbe, 0xe2, 0xa8, 0x6a, 0x3c,
  0x0e, 0x0e, 0xf2, 0xbb, 0xd5, 0x1a, 0x59, 0xbe, 0x8a, 0x2d, 0xe4, 0xbd,
  0xb1, 0x83, 0x8a, 0xbe, 0x24, 0x26, 0xc5, 0xbd, 0x59, 0xef, 0xa4, 0xbe,
  0x78, 0x6b, 0x62, 0xbe, 0xcd, 0xb9, 0x79, 0xbd, 0x57, 0xb9, 0x13, 0xbe,
  0x24, 0x76, 0x99, 0x3c, 0xae, 0x41, 0xcf, 0xbd, 0xf6, 0x8f, 0x87, 0x3d,
  0x75, 0x31, 0x81, 0xbe, 0x6e, 0xc1, 0x68, 0x3d, 0xb3, 0xcf, 0x80, 0x3d,
  0x2b, 0x5f, 0xec, 0x3d, 0x0f, 0x29, 0x86, 0xbe, 0x4c, 0xa9, 0xd5, 0xbd,
  0xd2, 0xb8, 0xae, 0xbd, 0x9b, 0xf6, 0x7c, 0xbe, 0x9b, 0xe6, 0x49, 0xbe,
  0x25, 0x4b, 0x23, 0xbd, 0x40, 0x2d, 0xba, 0xbe, 0x4b, 0xd8, 0x88, 0xbe,
  0xf0, 0x75, 0x3e, 0x3d, 0x9e, 0xcd, 0xe5, 0xbc, 0x2a, 0x51, 0xb1, 0x3c,
  0x5f, 0x83, 0x85, 0x3a, 0x3f, 0x9b, 0x12, 0x3e, 0xb0, 0x7a, 0x6b, 0xbe,
  0x63, 0xf0, 0xa5, 0xbc, 0x2f, 0x4c, 0x25, 0xbe, 0xe5, 0x4d, 0x36, 0xbf,
  0x0d, 0x56, 0xd4, 0x3b, 0x50, 0x2d, 0x1f, 0x3d, 0x3c, 0x2d, 0x7e, 0x3d,
  0x3b, 0xd4, 0x88, 0x3d, 0xc7, 0x5f, 0x20, 0xbd, 0xee, 0xec, 0x4c, 0xbe,
  0x23, 0xcb, 0x87, 0x3d, 0xb2, 0x64, 0x8f, 0xbe, 0xfe, 0x52, 0x86, 0xbd,
  0x88, 0x02, 0x08, 0xbe, 0xc1, 0xea, 0x00, 0x3d, 0x03, 0xa1, 0x20, 0x3d,
  0x44, 0xd8, 0xb9, 0xbe, 0xb0, 0x34, 0xac, 0xbd, 0x77, 0xdb, 0x82, 0xbd,
  0x84, 0xe6, 0x37, 0xbf, 0xe3, 0x60, 0x57, 0x3c, 0xbb, 0xc3, 0x59, 0x3c,
  0x56, 0xea, 0xdf, 0xbd, 0x94, 0xf6, 0x04, 0xbe, 0xb4, 0x90, 0x58, 0xbd,
  0x31, 0x47, 0xfa, 0xbd, 0xa5, 0xce, 0x49, 0x3d, 0xd3, 0xb6, 0x2e, 0xbe,
  0xe4, 0x47, 0x15, 0xbd, 0x72, 0x17, 0x2a, 0xbe, 0x48, 0x4b, 0x32, 0x3e,
  0x02, 0xea, 0x75, 0x3e, 0x38, 0xd8, 0xc9, 0xbe, 0x59, 0xe2, 0xa1, 0xbd,
  0x67, 0x2c, 0xbb, 0x3e, 0xa3, 0x68, 0x28, 0xbf, 0xf7, 0x53, 0x83, 0xbd,
  0xf0, 0x50, 0x05, 0x3e, 0x8d, 0x4a, 0xa7, 0x3d, 0x14, 0x61, 0xce, 0x3e,
  0x93, 0x5d, 0x0c, 0xbd, 0x47, 0x5a, 0x1a, 0x3e, 0x4c, 0xc3, 0x2f, 0xbe,
  0x58, 0xe7, 0x4e, 0x3d, 0x87, 0x27, 0x90, 0xbb, 0xfc, 0x68, 0x0c, 0xbe,
  0xee, 0x5d, 0x82, 0x3e, 0xcd, 0x98, 0x96, 0x3e, 0x91, 0x37, 0xbe, 0xbe,
  0xfa, 0xbe, 0x06, 0xbe, 0xdc, 0x8a, 0x3a, 0x3e, 0x82, 0xee, 0x2f, 0xbf,
  0x5f, 0x3a, 0x0c, 0x3e, 0x26, 0x7b, 0x14, 0x3e, 0x16, 0xe9, 0xac, 0xbc,
  0x50, 0xfd, 0x5a, 0xbd, 0xe6, 0x4c, 0x04, 0xbd, 0x3d, 0xef, 0x91, 0x3e,
  0x3a, 0xea, 0x71, 0x3d, 0xa3, 0xe2, 0x03, 0xbe, 0xa1, 0xa6, 0xa9, 0x3c,
  0xb2, 0x52, 0xff, 0xbd, 0x64, 0xa4, 0xc4, 0x3e, 0x48, 0xb4, 0x0e, 0x3e,
  0x8b, 0xc2, 0x28, 0xbe, 0xc2, 0x74, 0x48, 0xbe, 0xe7, 0xe9, 0xea, 0xbe,
  0xd3, 0xa8, 0x14, 0xbe, 0xc2, 0x1e, 0x7e, 0xbe, 0x9f, 0xec, 0xeb, 0xbc,
  0x8d, 0x12, 0xd7, 0x3c, 0xcb, 0x51, 0xac, 0xbe, 0x51, 0xbe, 0xd9, 0xbd,
  0x91, 0xbe, 0x47, 0x3e, 0x6f, 0x1d, 0x8b, 0x3d, 0x0d, 0xc7, 0xb0, 0xbe,
  0xf4, 0xf2, 0x80, 0x3d, 0xb4, 0x74, 0x3f, 0x3d, 0xaa, 0xac, 0x3f, 0x3e,
  0x46, 0x3d, 0x42, 0x3d, 0x45, 0xcb, 0x2e, 0x3e, 0x68, 0x66, 0x98, 0xbe,
  0x06, 0x5f, 0xb5, 0xbe, 0x06, 0x12, 0xbc, 0x3e, 0x8c, 0x89, 0xa5, 0xbe,
  0x7a, 0x54, 0x87, 0xbe, 0x91, 0x2e, 0x45, 0x3d, 0xc0, 0x75, 0x95, 0xbd,
  0xce, 0xec, 0x08, 0xbd, 0xba, 0x25, 0x64, 0x3e, 0x4d, 0x62, 0x51, 0x3e,
  0xe8, 0x55, 0xa7, 0xbd, 0xca, 0x83, 0x05, 0x3d, 0x96, 0x07, 0xf6, 0x3c,
  0xd3, 0x1c, 0x6d, 0xbe, 0x31, 0x9a, 0xaa, 0xbd, 0x8a, 0x45, 0xa2, 0x3d,
  0xcc, 0x1b, 0x4c, 0xbe, 0x90, 0x2d, 0x2b, 0x3d, 0xe0, 0xb0, 0x6b, 0xbe,
  0x64, 0x56, 0xb6, 0xbc, 0x0c, 0xcf, 0xcd, 0xbe, 0x5b, 0x50, 0x27, 0xbe,
  0xef, 0x1c, 0xf1, 0x3c, 0xf9, 0x42, 0x10, 0xbe, 0x8f, 0xde, 0xc5, 0xbd,
  0x45, 0xa6, 0x85, 0xbd, 0x0e, 0x8e, 0xa2, 0xbe, 0x40, 0xd7, 0xdd, 0xbd,
  0xc2, 0x05, 0xaf, 0xbd, 0xf2, 0x13, 0xa0, 0x3d, 0x5b, 0x06, 0x68, 0xbe,
  0xd3, 0xcd, 0x57, 0xbe, 0x81, 0xd9, 0x09, 0x3e, 0x9b, 0x31, 0x97, 0xbd,
  0x1b, 0x2d, 0x55, 0xbd, 0x61, 0x43, 0xf2, 0x3d, 0x47, 0xed, 0x65, 0xbe,
  0xc3, 0x94, 0x3d, 0xbe, 0xb1, 0xde, 0x2e, 0x3e, 0x78, 0xe7, 0xd5, 0xbd,
  0x61, 0x06, 0xab, 0x3d, 0x8c, 0x90, 0x49, 0x3d, 0x4e, 0x17, 0x78, 0x3c,
  0x77, 0x6e, 0x24, 0x3d, 0x19, 0x18, 0x66, 0xbd, 0x9b, 0x90, 0x14, 0xbc,
  0x10, 0x93, 0x29, 0xbe, 0xce, 0x78, 0x14, 0xbe, 0x2b, 0x3b, 0x33, 0xbe,
  0xf9, 0x83, 0x1a, 0xbd, 0x7c, 0xbf, 0xa1, 0x3d, 0x89, 0x48, 0x75, 0xbe,
  0xfd, 0xd5, 0x47, 0x3d, 0x31, 0xce, 0x2e, 0xbe, 0x6a, 0x34, 0x02, 0xbd,
  0x9b, 0x93, 0x89, 0xbe, 0x0b, 0xf0, 0xb0, 0xbc, 0xdf, 0x39, 0x0c, 0x3e,
  0x98, 0xb3, 0xba, 0xbd, 0xcc, 0x81, 0x90, 0x3d, 0x4f, 0x88, 0x85, 0xbe,
  0xfc, 0xd9, 0x30, 0x3e, 0x46, 0x19, 0x7a, 0xbe, 0x10, 0x3c, 0x87, 0xbe,
  0x7e, 0x89, 0x3c, 0x3d, 0x23, 0x3c, 0xa1, 0x3d, 0xcd, 0x16, 0x3d, 0xbe,
  0xe8, 0x69, 0x82, 0xbd, 0xb7, 0x3e, 0x27, 0xbe, 0x03, 0x48, 0xd5, 0xbd,
  0xea, 0x39, 0xef, 0xbc, 0x71, 0xbb, 0xb6, 0xbe, 0x22, 0xc8, 0x42, 0xbe,
  0x13, 0xab, 0x00, 0x3e, 0x15, 0xac, 0x51, 0xbb, 0x58, 0x8e, 0xbe, 0xbc,
  0x8c, 0x07, 0xe9, 0x3d, 0xba, 0x24, 0x80, 0x3d, 0x7a, 0x43, 0xf0, 0xbd,
  0x2e, 0xbe, 0x8f, 0xbc, 0x91, 0xd4, 0xf4, 0x3d, 0x65, 0x9d, 0x57, 0xbe,
  0xe9, 0xb6, 0x8a, 0xbe, 0xd8, 0xe2, 0x0c, 0xbe, 0x43, 0x92, 0xd4, 0xbd,
  0x2c, 0x5f, 0x1d, 0xbd, 0xe0, 0x7f, 0x06, 0x3e, 0xe9, 0x23, 0x44, 0xbd,
  0x96, 0x29, 0x0a, 0x3c, 0x0f, 0xd7, 0x3c, 0x3e, 0xc1, 0x4f, 0xaa, 0xbd,
  0x08, 0x74, 0x8f, 0x3d, 0xde, 0x6b, 0x7c, 0x3c, 0x24, 0xa2, 0xda, 0xbd,
  0x8c, 0x0b, 0x89, 0xbd, 0x21, 0x15, 0x08, 0xbd, 0x33, 0x4a, 0xdd, 0xbd,
  0xba, 0x2e, 0x28, 0xbe, 0x8a, 0xd8, 0x85, 0x3d, 0xda, 0x98, 0xa0, 0x3d,
  0x85, 0x81, 0x60, 0xbe, 0xed, 0xdc, 0xa0, 0x3d, 0xf8, 0xfa, 0x81, 0x3d,
  0xcd, 0x7d, 0x5b, 0xbe, 0x23, 0xbd, 0x84, 0xbc, 0x88, 0x4d, 0x83, 0x3d,
  0xe9, 0xdd, 0x4b, 0xbe, 0x5a, 0x34, 0x5a, 0xbe, 0xcc, 0xfb, 0x39, 0x3c,
  0x9f, 0xbc, 0x04, 0xbe, 0xec, 0xfa, 0x05, 0xbe, 0x67, 0x83, 0x16, 0xbe,
  0x71, 0xf3, 0xbc, 0xbd, 0x0e, 0x0a, 0xe4, 0xbd, 0x10, 0x03, 0x31, 0x3d,
  0x65, 0xcc, 0x0b, 0x3d, 0xe4, 0xd1, 0x10, 0x3e, 0x71, 0xb6, 0x48, 0xbe,
  0x4d, 0x50, 0x3e, 0xbd, 0x6b, 0x4a, 0x5d, 0xbe, 0xc9, 0xe4, 0x4b, 0x3c,
  0x73, 0xd6, 0x31, 0xbe, 0x55, 0xf8, 0x98, 0xbd, 0x7b, 0xbd, 0x6f, 0xbd,
  0x3e, 0x4a, 0x8c, 0xbe, 0xcc, 0x39, 0x21, 0xbd, 0xa7, 0xad, 0x94, 0xbe,
  0x12, 0xb0, 0x5f, 0xbe, 0x61, 0x1e, 0x22, 0x3e, 0xfc, 0x12, 0xa4, 0xbd,
  0xa7, 0x1b, 0x96, 0xbd, 0x09, 0x6d, 0x1a, 0x3e, 0xda, 0x7d, 0xdd, 0x3d,
  0x46, 0xfe, 0xff, 0xff, 0x10, 0x00, 0x00, 0x00, 0x05, 0x00, 0x00, 0x00,
  0x14, 0x00, 0x00, 0x00, 0x2c, 0x00, 0x00, 0x00, 0x02, 0x00, 0x00, 0x00,
  0x10, 0x00, 0x00, 0x00, 0x70, 0x00, 0x00, 0x00, 0x17, 0x00, 0x00, 0x00,
  0x73, 0x65, 0x71, 0x75, 0x65, 0x6e, 0x74, 0x69, 0x61, 0x6c, 0x2f, 0x64,
  0x65, 0x6e, 0x73, 0x65, 0x2f, 0x4d, 0x61, 0x74, 0x4d, 0x75, 0x6c, 0x00,
  0x34, 0xfe, 0xff, 0xff, 0x2a, 0xff, 0xff, 0xff, 0x04, 0x00, 0x00, 0x00,
  0x08, 0x00, 0x00, 0x00, 0xff, 0xff, 0xff, 0xff, 0x70, 0x00, 0x00, 0x00,
  0x00, 0x00, 0x0e, 0x00, 0x18, 0x00, 0x08, 0x00, 0x07, 0x00, 0x0c, 0x00,
  0x10, 0x00, 0x14, 0x00, 0x0e, 0x00, 0x00, 0x00, 0x00, 0x00, 0x00, 0x02,
  0x10, 0x00, 0x00, 0x00, 0x04, 0x00, 0x00, 0x00, 0x10, 0x00, 0x00, 0x00,
  0x2c, 0x00, 0x00, 0x00, 0x01, 0x00, 0x00, 0x00, 0x02, 0x00, 0x00, 0x00,
  0x18, 0x00, 0x00, 0x00, 0x73, 0x65, 0x71, 0x75, 0x65, 0x6e, 0x74, 0x69,
  0x61, 0x6c, 0x2f, 0x66, 0x6c, 0x61, 0x74, 0x74, 0x65, 0x6e, 0x2f, 0x43,
  0x6f, 0x6e, 0x73, 0x74, 0x00, 0x00, 0x00, 0x00, 0x9c, 0xfe, 0xff, 0xff,
  0x92, 0xff, 0xff, 0xff, 0x04, 0x00, 0x00, 0x00, 0x10, 0x00, 0x00, 0x00,
  0x77, 0x24, 0xa6, 0x3f, 0x87, 0xae, 0x56, 0xbf, 0x2d, 0x36, 0xa5, 0xbf,
  0xd2, 0x3b, 0x34, 0x3f, 0x0a, 0xff, 0xff, 0xff, 0x10, 0x00, 0x00, 0x00,
  0x03, 0x00, 0x00, 0x00, 0x10, 0x00, 0x00, 0x00, 0x3c, 0x00, 0x00, 0x00,
  0x01, 0x00, 0x00, 0x00, 0x04, 0x00, 0x00, 0x00, 0x29, 0x00, 0x00, 0x00,
  0x73, 0x65, 0x71, 0x75, 0x65, 0x6e, 0x74, 0x69, 0x61, 0x6c, 0x2f, 0x64,
  0x65, 0x6e, 0x73, 0x65, 0x5f, 0x31, 0x2f, 0x42, 0x69, 0x61, 0x73, 0x41,
  0x64, 0x64, 0x2f, 0x52, 0x65, 0x61, 0x64, 0x56, 0x61, 0x72, 0x69, 0x61,
  0x62, 0x6c, 0x65, 0x4f, 0x70, 0x00, 0x00, 0x00, 0x60, 0xff, 0xff, 0xff,
  0x00, 0x00, 0x06, 0x00, 0x08, 0x00, 0x04, 0x00, 0x06, 0x00, 0x00, 0x00,
  0x04, 0x00, 0x00, 0x00, 0x40, 0x00, 0x00, 0x00, 0x2b, 0x83, 0x50, 0x3f,
  0xce, 0x41, 0x26, 0x3f, 0x02, 0x66, 0x2e, 0x40, 0xfb, 0x5f, 0x98, 0xbf,
  0x2f, 0x69, 0x3e, 0xbf, 0x3b, 0x6e, 0x55, 0xbe, 0x75, 0xc6, 0x67, 0xbe,
  0xca, 0xa4, 0x2d, 0xbe, 0xbc, 0xea, 0xff, 0x3e, 0xc3, 0x31, 0x72, 0xbe,
  0x3a, 0xbe, 0x8d, 0xbf, 0x16, 0x2a, 0x55, 0xbe, 0xb4, 0x85, 0x8c, 0xbe,
  0x2f, 0x84, 0x59, 0xbe, 0x8b, 0x19, 0x8f, 0x3e, 0xa2, 0xf5, 0x29, 0xbe,
  0xae, 0xff, 0xff, 0xff, 0x10, 0x00, 0x00, 0x00, 0x02, 0x00, 0x00, 0x00,
  0x10, 0x00, 0x00, 0x00, 0x3c, 0x00, 0x00, 0x00, 0x01, 0x00, 0x00, 0x00,
  0x10, 0x00, 0x00, 0x00, 0x27, 0x00, 0x00, 0x00, 0x73, 0x65, 0x71, 0x75,
  0x65, 0x6e, 0x74, 0x69, 0x61, 0x6c, 0x2f, 0x64, 0x65, 0x6e, 0x73, 0x65,
  0x2f, 0x42, 0x69, 0x61, 0x73, 0x41, 0x64, 0x64, 0x2f, 0x52, 0x65, 0x61,
  0x64, 0x56, 0x61, 0x72, 0x69, 0x61, 0x62, 0x6c, 0x65, 0x4f, 0x70, 0x00,
  0x04, 0x00, 0x06, 0x00, 0x04, 0x00, 0x00, 0x00, 0x00, 0x00, 0x0e, 0x00,
  0x14, 0x00, 0x04, 0x00, 0x00, 0x00, 0x08, 0x00, 0x0c, 0x00, 0x10, 0x00,
  0x0e, 0x00, 0x00, 0x00, 0x10, 0x00, 0x00, 0x00, 0x01, 0x00, 0x00, 0x00,
  0x1c, 0x00, 0x00, 0x00, 0x2c, 0x00, 0x00, 0x00, 0x04, 0x00, 0x00, 0x00,
  0x01, 0x00, 0x00, 0x00, 0x40, 0x00, 0x00, 0x00, 0x03, 0x00, 0x00, 0x00,
  0x01, 0x00, 0x00, 0x00, 0x0c, 0x00, 0x00, 0x00, 0x63, 0x6f, 0x6e, 0x76,
  0x32, 0x64, 0x5f, 0x69, 0x6e, 0x70, 0x75, 0x74, 0x00, 0x00, 0x00, 0x00,
  0xfc, 0xff, 0xff, 0xff, 0x04, 0x00, 0x04, 0x00, 0x04, 0x00, 0x00, 0x00
};


unsigned int _content_mbed07_model_model_tflite_len = 12384;
// Fill the int in `src/model.cc` here